custom_quantize_layers:                                                                             # 0.9661494690051169
    /model.1/conv/Conv_output_0: float16
    /model.1/act/Relu_output_0: float16                                                             # 0.9651339742607216
    /model.0/conv/Conv_output_0: float16
    /model.0/act/Relu_output_0: float16                                                             # 0.9902694968313798
    /model.2/cv1/conv/Conv_output_0: float16
    /model.2/cv1/act/Relu_output_0: float16                                                         # 0.9963441128992793
    /model.2/Split_output_0: float16                                                                # 0.9974636115464078
    /model.2/m.0/cv1/conv/Conv_output_0: float16
    /model.2/m.0/cv1/act/Relu_output_0: float16                                                     # 0.9978948544771855
    /model.2/cv2/conv/Conv_output_0: float16
    /model.2/cv2/act/Relu_output_0: float16                                                         # 0.9979701781965912
    /model.2/Concat_output_0: float16                                                               # 0.9982515992717894
    /model.4/cv1/conv/Conv_output_0: float16
    /model.4/cv1/act/Relu_output_0: float16                                                         # 0.9983593860478245
    /model.4/Split_output_0: float16                                                                # 0.9984394718261245
    /model.3/conv/Conv_output_0: float16
    /model.3/act/Relu_output_0: float16                                                             # 0.9986516344274918
    280_int8: float16                                                                               # 0.9988748093381082
    '280': float16                                                                                  # 0.9988748093381082
    /model.2/m.0/Add_output_0: float16                                                              # 0.9991353104608318
    /model.4/m.0/cv1/conv/Conv_output_0: float16
    /model.4/m.0/cv1/act/Relu_output_0: float16                                                     # 0.999161883603488
    /model.2/m.0/cv2/conv/Conv_output_0: float16
    /model.2/m.0/cv2/act/Relu_output_0: float16                                                     # 0.9992742351551672
    /model.4/m.0/Add_output_0: float16                                                              # 0.9993037610016123
    /model.4/cv2/conv/Conv_output_0: float16
    /model.4/cv2/act/Relu_output_0: float16                                                         # 0.9993085795122564
    /model.6/m.0/Add_output_0: float16                                                              # 0.9993193202341775
    /model.4/m.0/cv2/conv/Conv_output_0: float16
    /model.4/m.0/cv2/act/Relu_output_0: float16                                                     # 0.9993666292637055
    /model.15/Concat_output_0: float16                                                              # 0.999363196672593
    /model.4/Concat_output_0: float16                                                               # 0.9994223186432017
    /model.6/cv2/conv/Conv_output_0: float16
    /model.6/cv2/act/Relu_output_0: float16                                                         # 0.9994532218928753
    /model.6/Split_output_0: float16                                                                # 0.9994260102750019
    /model.15/cv1/conv/Conv_output_0: float16
    /model.15/cv1/act/Relu_output_0: float16                                                        # 0.9994314283756683
    /model.4/m.1/cv1/conv/Conv_output_0: float16
    /model.4/m.1/cv1/act/Relu_output_0: float16                                                     # 0.9994379981833849
    /model.4/m.1/Add_output_0: float16                                                              # 0.9994935448573329
    /model.6/cv1/conv/Conv_output_0: float16
    /model.6/cv1/act/Relu_output_0: float16                                                         # 0.9994887455724615
    /model.15/Split_output_0: float16                                                               # 0.9995104806529671
    /model.22/cv2.0/cv2.0.1/conv/Conv_output_0: float16
    /model.22/cv2.0/cv2.0.1/act/Relu_output_0: float16                                              # 0.9995377838733345
    /model.6/Concat_output_0: float16                                                               # 0.9995933424727753
    /model.12/cv2/conv/Conv_output_0: float16
    /model.12/cv2/act/Relu_output_0: float16                                                        # 0.999595936413094
    /model.6/m.0/cv1/conv/Conv_output_0: float16
    /model.6/m.0/cv1/act/Relu_output_0: float16                                                     # 0.999563662619094
    /model.15/cv2/conv/Conv_output_0: float16
    /model.15/cv2/act/Relu_output_0: float16                                                        # 0.9995834613225977
    /model.6/m.1/cv1/conv/Conv_output_0: float16
    /model.6/m.1/cv1/act/Relu_output_0: float16                                                     # 0.9995777970024876
    /model.6/m.1/Add_output_0: float16                                                              # 0.9996322793017861
    /model.12/cv1/conv/Conv_output_0: float16
    /model.12/cv1/act/Relu_output_0: float16                                                        # 0.999638955369727
    /model.6/m.0/cv2/conv/Conv_output_0: float16
    /model.6/m.0/cv2/act/Relu_output_0: float16                                                     # 0.9997059517602406
    /model.12/Concat_output_0: float16                                                              # 0.9997181864386216
    /model.15/m.0/cv1/conv/Conv_output_0: float16
    /model.15/m.0/cv1/act/Relu_output_0: float16                                                    # 0.9997330026728231
quantize_parameters:
    images:
        qtype: asym
        qmethod: layer
        dtype: float32
        min:
        -   0.007843137718737125
        max:
        -   1.0
        scale: []
        zero_point: []
        ori_min:
        -   0.007843137718737125
        ori_max:
        -   1.0
    /model.0/conv/Conv_output_0:
        qtype: asym
        qmethod: layer
        dtype: int8
        min:
        -   0.0
        max:
        -   30.42266845703125
        scale:
        -   0.11930458218443628
        zero_point:
        -   -128
        ori_min:
        -   -37.2318000793457
        ori_max:
        -   30.42266845703125
    /model.0/act/Relu_output_0:
        qtype: asym
        qmethod: layer
        dtype: int8
        min:
        -   0.0
        max:
        -   30.42266845703125
        scale:
        -   0.11930458218443628
        zero_point:
        -   -128
        ori_min:
        -   0.0
        ori_max:
        -   30.42266845703125
    /model.1/conv/Conv_output_0:
        qtype: asym
        qmethod: layer
        dtype: int8
        min:
        -   0.0
        max:
        -   37.293006896972656
        scale:
        -   0.146247085870481
        zero_point:
        -   -128
        ori_min:
        -   -32.16223907470703
        ori_max:
        -   37.293006896972656
    /model.1/act/Relu_output_0:
        qtype: asym
        qmethod: layer
        dtype: int8
        min:
        -   0.0
        max:
        -   37.293006896972656
        scale:
        -   0.146247085870481
        zero_point:
        -   -128
        ori_min:
        -   0.0
        ori_max:
        -   37.293006896972656
    /model.2/cv1/conv/Conv_output_0:
        qtype: asym
        qmethod: layer
        dtype: int8
        min:
        -   0.0
        max:
        -   27.117921829223633
        scale:
        -   0.10634479148715151
        zero_point:
        -   -128
        ori_min:
        -   -35.46261215209961
        ori_max:
        -   27.117921829223633
    /model.2/cv1/act/Relu_output_0:
        qtype: asym
        qmethod: layer
        dtype: int8
        min:
        -   0.0
        max:
        -   27.117921829223633
        scale:
        -   0.10634479148715151
        zero_point:
        -   -128
        ori_min:
        -   0.0
        ori_max:
        -   27.117921829223633
    /model.2/Split_output_0:
        qtype: asym
        qmethod: layer
        dtype: int8
        min:
        -   0.0
        max:
        -   27.117921829223633
        scale:
        -   0.10634479148715151
        zero_point:
        -   -128
        ori_min:
        -   0.0
        ori_max:
        -   27.117921829223633
    /model.2/Split_output_1:
        qtype: asym
        qmethod: layer
        dtype: int8
        min:
        -   0.0
        max:
        -   17.04326057434082
        scale:
        -   0.06683631597780713
        zero_point:
        -   -128
        ori_min:
        -   0.0
        ori_max:
        -   17.04326057434082
    /model.2/m.0/cv1/conv/Conv_output_0:
        qtype: asym
        qmethod: layer
        dtype: int8
        min:
        -   0.0
        max:
        -   20.081104278564453
        scale:
        -   0.07874942854339001
        zero_point:
        -   -128
        ori_min:
        -   -23.66526985168457
        ori_max:
        -   20.081104278564453
    /model.2/m.0/cv1/act/Relu_output_0:
        qtype: asym
        qmethod: layer
        dtype: int8
        min:
        -   0.0
        max:
        -   20.081104278564453
        scale:
        -   0.07874942854339001
        zero_point:
        -   -128
        ori_min:
        -   0.0
        ori_max:
        -   20.081104278564453
    /model.2/m.0/cv2/conv/Conv_output_0:
        qtype: asym
        qmethod: layer
        dtype: int8
        min:
        -   0.0
        max:
        -   17.667417526245117
        scale:
        -   0.06928399029900045
        zero_point:
        -   -128
        ori_min:
        -   -21.271684646606445
        ori_max:
        -   17.667417526245117
    /model.2/m.0/cv2/act/Relu_output_0:
        qtype: asym
        qmethod: layer
        dtype: int8
        min:
        -   0.0
        max:
        -   17.667417526245117
        scale:
        -   0.06928399029900045
        zero_point:
        -   -128
        ori_min:
        -   0.0
        ori_max:
        -   17.667417526245117
    /model.2/m.0/Add_output_0:
        qtype: asym
        qmethod: layer
        dtype: int8
        min:
        -   0.0
        max:
        -   23.538433074951172
        scale:
        -   0.09230758068608302
        zero_point:
        -   -128
        ori_min:
        -   0.0
        ori_max:
        -   23.538433074951172
    /model.2/Concat_output_0:
        qtype: asym
        qmethod: layer
        dtype: int8
        min:
        -   0.0
        max:
        -   27.117921829223633
        scale:
        -   0.10634479148715151
        zero_point:
        -   -128
        ori_min:
        -   0.0
        ori_max:
        -   27.117921829223633
    /model.2/cv2/conv/Conv_output_0:
        qtype: asym
        qmethod: layer
        dtype: int8
        min:
        -   0.0
        max:
        -   20.84177589416504
        scale:
        -   0.08173245448692172
        zero_point:
        -   -128
        ori_min:
        -   -27.289932250976562
        ori_max:
        -   20.84177589416504
    /model.2/cv2/act/Relu_output_0:
        qtype: asym
        qmethod: layer
        dtype: int8
        min:
        -   0.0
        max:
        -   20.84177589416504
        scale:
        -   0.08173245448692172
        zero_point:
        -   -128
        ori_min:
        -   0.0
        ori_max:
        -   20.84177589416504
    /model.3/conv/Conv_output_0:
        qtype: asym
        qmethod: layer
        dtype: int8
        min:
        -   0.0
        max:
        -   19.337200164794922
        scale:
        -   0.07583215750899969
        zero_point:
        -   -128
        ori_min:
        -   -15.257485389709473
        ori_max:
        -   19.337200164794922
    /model.3/act/Relu_output_0:
        qtype: asym
        qmethod: layer
        dtype: int8
        min:
        -   0.0
        max:
        -   19.337200164794922
        scale:
        -   0.07583215750899969
        zero_point:
        -   -128
        ori_min:
        -   0.0
        ori_max:
        -   19.337200164794922
    /model.4/cv1/conv/Conv_output_0:
        qtype: asym
        qmethod: layer
        dtype: int8
        min:
        -   0.0
        max:
        -   14.338382720947266
        scale:
        -   0.056228951846852025
        zero_point:
        -   -128
        ori_min:
        -   -21.14830207824707
        ori_max:
        -   14.338382720947266
    /model.4/cv1/act/Relu_output_0:
        qtype: asym
        qmethod: layer
        dtype: int8
        min:
        -   0.0
        max:
        -   14.338382720947266
        scale:
        -   0.056228951846852025
        zero_point:
        -   -128
        ori_min:
        -   0.0
        ori_max:
        -   14.338382720947266
    /model.4/Split_output_0:
        qtype: asym
        qmethod: layer
        dtype: int8
        min:
        -   0.0
        max:
        -   14.338382720947266
        scale:
        -   0.056228951846852025
        zero_point:
        -   -128
        ori_min:
        -   0.0
        ori_max:
        -   14.338382720947266
    /model.4/Split_output_1:
        qtype: asym
        qmethod: layer
        dtype: int8
        min:
        -   0.0
        max:
        -   13.019475936889648
        scale:
        -   0.05105676837995941
        zero_point:
        -   -128
        ori_min:
        -   0.0
        ori_max:
        -   13.019475936889648
    /model.4/m.0/cv1/conv/Conv_output_0:
        qtype: asym
        qmethod: layer
        dtype: int8
        min:
        -   0.0
        max:
        -   15.096246719360352
        scale:
        -   0.05920096752690334
        zero_point:
        -   -128
        ori_min:
        -   -14.9600248336792
        ori_max:
        -   15.096246719360352
    /model.4/m.0/cv1/act/Relu_output_0:
        qtype: asym
        qmethod: layer
        dtype: int8
        min:
        -   0.0
        max:
        -   15.096246719360352
        scale:
        -   0.05920096752690334
        zero_point:
        -   -128
        ori_min:
        -   0.0
        ori_max:
        -   15.096246719360352
    /model.4/m.0/cv2/conv/Conv_output_0:
        qtype: asym
        qmethod: layer
        dtype: int8
        min:
        -   0.0
        max:
        -   12.304109573364258
        scale:
        -   0.04825141009162454
        zero_point:
        -   -128
        ori_min:
        -   -16.63776969909668
        ori_max:
        -   12.304109573364258
    /model.4/m.0/cv2/act/Relu_output_0:
        qtype: asym
        qmethod: layer
        dtype: int8
        min:
        -   0.0
        max:
        -   12.304109573364258
        scale:
        -   0.04825141009162454
        zero_point:
        -   -128
        ori_min:
        -   0.0
        ori_max:
        -   12.304109573364258
    /model.4/m.0/Add_output_0:
        qtype: asym
        qmethod: layer
        dtype: int8
        min:
        -   0.0
        max:
        -   13.507871627807617
        scale:
        -   0.05297204559924556
        zero_point:
        -   -128
        ori_min:
        -   0.0
        ori_max:
        -   13.507871627807617
    /model.4/m.1/cv1/conv/Conv_output_0:
        qtype: asym
        qmethod: layer
        dtype: int8
        min:
        -   0.0
        max:
        -   11.430607795715332
        scale:
        -   0.04482591292437385
        zero_point:
        -   -128
        ori_min:
        -   -11.104966163635254
        ori_max:
        -   11.430607795715332
    /model.4/m.1/cv1/act/Relu_output_0:
        qtype: asym
        qmethod: layer
        dtype: int8
        min:
        -   0.0
        max:
        -   11.430607795715332
        scale:
        -   0.04482591292437385
        zero_point:
        -   -128
        ori_min:
        -   0.0
        ori_max:
        -   11.430607795715332
    /model.4/m.1/cv2/conv/Conv_output_0:
        qtype: asym
        qmethod: layer
        dtype: int8
        min:
        -   0.0
        max:
        -   16.359468460083008
        scale:
        -   0.06415477827483533
        zero_point:
        -   -128
        ori_min:
        -   -16.838769912719727
        ori_max:
        -   16.359468460083008
    /model.4/m.1/cv2/act/Relu_output_0:
        qtype: asym
        qmethod: layer
        dtype: int8
        min:
        -   0.0
        max:
        -   16.359468460083008
        scale:
        -   0.06415477827483533
        zero_point:
        -   -128
        ori_min:
        -   0.0
        ori_max:
        -   16.359468460083008
    /model.4/m.1/Add_output_0:
        qtype: asym
        qmethod: layer
        dtype: int8
        min:
        -   0.0
        max:
        -   17.372142791748047
        scale:
        -   0.06812605016371782
        zero_point:
        -   -128
        ori_min:
        -   0.0
        ori_max:
        -   17.372142791748047
    /model.4/Concat_output_0:
        qtype: asym
        qmethod: layer
        dtype: int8
        min:
        -   0.0
        max:
        -   17.372142791748047
        scale:
        -   0.06812605016371782
        zero_point:
        -   -128
        ori_min:
        -   0.0
        ori_max:
        -   17.372142791748047
    /model.4/cv2/conv/Conv_output_0:
        qtype: asym
        qmethod: layer
        dtype: int8
        min:
        -   0.0
        max:
        -   14.044576644897461
        scale:
        -   0.05507677115646063
        zero_point:
        -   -128
        ori_min:
        -   -14.939023971557617
        ori_max:
        -   14.044576644897461
    /model.4/cv2/act/Relu_output_0:
        qtype: asym
        qmethod: layer
        dtype: int8
        min:
        -   0.0
        max:
        -   14.044576644897461
        scale:
        -   0.05507677115646063
        zero_point:
        -   -128
        ori_min:
        -   0.0
        ori_max:
        -   14.044576644897461
    /model.5/conv/Conv_output_0:
        qtype: asym
        qmethod: layer
        dtype: int8
        min:
        -   0.0
        max:
        -   10.626263618469238
        scale:
        -   0.0416716220332127
        zero_point:
        -   -128
        ori_min:
        -   -8.611551284790039
        ori_max:
        -   10.626263618469238
    /model.5/act/Relu_output_0:
        qtype: asym
        qmethod: layer
        dtype: int8
        min:
        -   0.0
        max:
        -   10.626263618469238
        scale:
        -   0.0416716220332127
        zero_point:
        -   -128
        ori_min:
        -   0.0
        ori_max:
        -   10.626263618469238
    /model.6/cv1/conv/Conv_output_0:
        qtype: asym
        qmethod: layer
        dtype: int8
        min:
        -   0.0
        max:
        -   10.130392074584961
        scale:
        -   0.039727027743470436
        zero_point:
        -   -128
        ori_min:
        -   -9.26798152923584
        ori_max:
        -   10.130392074584961
    /model.6/cv1/act/Relu_output_0:
        qtype: asym
        qmethod: layer
        dtype: int8
        min:
        -   0.0
        max:
        -   10.130392074584961
        scale:
        -   0.039727027743470436
        zero_point:
        -   -128
        ori_min:
        -   0.0
        ori_max:
        -   10.130392074584961
    /model.6/Split_output_0:
        qtype: asym
        qmethod: layer
        dtype: int8
        min:
        -   0.0
        max:
        -   10.130392074584961
        scale:
        -   0.039727027743470436
        zero_point:
        -   -128
        ori_min:
        -   0.0
        ori_max:
        -   10.130392074584961
    /model.6/Split_output_1:
        qtype: asym
        qmethod: layer
        dtype: int8
        min:
        -   0.0
        max:
        -   9.053665161132812
        scale:
        -   0.035504569259344365
        zero_point:
        -   -128
        ori_min:
        -   0.0
        ori_max:
        -   9.053665161132812
    /model.6/m.0/cv1/conv/Conv_output_0:
        qtype: asym
        qmethod: layer
        dtype: int8
        min:
        -   0.0
        max:
        -   10.161955833435059
        scale:
        -   0.039850807189941405
        zero_point:
        -   -128
        ori_min:
        -   -10.018876075744629
        ori_max:
        -   10.161955833435059
    /model.6/m.0/cv1/act/Relu_output_0:
        qtype: asym
        qmethod: layer
        dtype: int8
        min:
        -   0.0
        max:
        -   10.161955833435059
        scale:
        -   0.039850807189941405
        zero_point:
        -   -128
        ori_min:
        -   0.0
        ori_max:
        -   10.161955833435059
    /model.6/m.0/cv2/conv/Conv_output_0:
        qtype: asym
        qmethod: layer
        dtype: int8
        min:
        -   0.0
        max:
        -   12.00473403930664
        scale:
        -   0.047077388389437806
        zero_point:
        -   -128
        ori_min:
        -   -12.643120765686035
        ori_max:
        -   12.00473403930664
    /model.6/m.0/cv2/act/Relu_output_0:
        qtype: asym
        qmethod: layer
        dtype: int8
        min:
        -   0.0
        max:
        -   12.00473403930664
        scale:
        -   0.047077388389437806
        zero_point:
        -   -128
        ori_min:
        -   0.0
        ori_max:
        -   12.00473403930664
    /model.6/m.0/Add_output_0:
        qtype: asym
        qmethod: layer
        dtype: int8
        min:
        -   0.0
        max:
        -   12.303071975708008
        scale:
        -   0.04824734108120787
        zero_point:
        -   -128
        ori_min:
        -   0.0
        ori_max:
        -   12.303071975708008
    /model.6/m.1/cv1/conv/Conv_output_0:
        qtype: asym
        qmethod: layer
        dtype: int8
        min:
        -   0.0
        max:
        -   12.248788833618164
        scale:
        -   0.04803446601418888
        zero_point:
        -   -128
        ori_min:
        -   -10.624853134155273
        ori_max:
        -   12.248788833618164
    /model.6/m.1/cv1/act/Relu_output_0:
        qtype: asym
        qmethod: layer
        dtype: int8
        min:
        -   0.0
        max:
        -   12.248788833618164
        scale:
        -   0.04803446601418888
        zero_point:
        -   -128
        ori_min:
        -   0.0
        ori_max:
        -   12.248788833618164
    /model.6/m.1/cv2/conv/Conv_output_0:
        qtype: asym
        qmethod: layer
        dtype: int8
        min:
        -   0.0
        max:
        -   16.462024688720703
        scale:
        -   0.0645569595636106
        zero_point:
        -   -128
        ori_min:
        -   -13.474882125854492
        ori_max:
        -   16.462024688720703
    /model.6/m.1/cv2/act/Relu_output_0:
        qtype: asym
        qmethod: layer
        dtype: int8
        min:
        -   0.0
        max:
        -   16.462024688720703
        scale:
        -   0.0645569595636106
        zero_point:
        -   -128
        ori_min:
        -   0.0
        ori_max:
        -   16.462024688720703
    /model.6/m.1/Add_output_0:
        qtype: asym
        qmethod: layer
        dtype: int8
        min:
        -   0.0
        max:
        -   20.974319458007812
        scale:
        -   0.08225223316865808
        zero_point:
        -   -128
        ori_min:
        -   0.0
        ori_max:
        -   20.974319458007812
    /model.6/Concat_output_0:
        qtype: asym
        qmethod: layer
        dtype: int8
        min:
        -   0.0
        max:
        -   20.974319458007812
        scale:
        -   0.08225223316865808
        zero_point:
        -   -128
        ori_min:
        -   0.0
        ori_max:
        -   20.974319458007812
    /model.6/cv2/conv/Conv_output_0:
        qtype: asym
        qmethod: layer
        dtype: int8
        min:
        -   0.0
        max:
        -   13.332300186157227
        scale:
        -   0.052283530141793044
        zero_point:
        -   -128
        ori_min:
        -   -10.81367015838623
        ori_max:
        -   13.332300186157227
    /model.6/cv2/act/Relu_output_0:
        qtype: asym
        qmethod: layer
        dtype: int8
        min:
        -   0.0
        max:
        -   13.332300186157227
        scale:
        -   0.052283530141793044
        zero_point:
        -   -128
        ori_min:
        -   0.0
        ori_max:
        -   13.332300186157227
    /model.7/conv/Conv_output_0:
        qtype: asym
        qmethod: layer
        dtype: int8
        min:
        -   0.0
        max:
        -   13.224679946899414
        scale:
        -   0.05186148998784084
        zero_point:
        -   -128
        ori_min:
        -   -12.62879753112793
        ori_max:
        -   13.224679946899414
    /model.7/act/Relu_output_0:
        qtype: asym
        qmethod: layer
        dtype: int8
        min:
        -   0.0
        max:
        -   13.224679946899414
        scale:
        -   0.05186148998784084
        zero_point:
        -   -128
        ori_min:
        -   0.0
        ori_max:
        -   13.224679946899414
    /model.8/cv1/conv/Conv_output_0:
        qtype: asym
        qmethod: layer
        dtype: int8
        min:
        -   0.0
        max:
        -   12.662805557250977
        scale:
        -   0.04965806100882736
        zero_point:
        -   -128
        ori_min:
        -   -12.183082580566406
        ori_max:
        -   12.662805557250977
    /model.8/cv1/act/Relu_output_0:
        qtype: asym
        qmethod: layer
        dtype: int8
        min:
        -   0.0
        max:
        -   12.662805557250977
        scale:
        -   0.04965806100882736
        zero_point:
        -   -128
        ori_min:
        -   0.0
        ori_max:
        -   12.662805557250977
    /model.8/Split_output_0:
        qtype: asym
        qmethod: layer
        dtype: int8
        min:
        -   0.0
        max:
        -   9.700078964233398
        scale:
        -   0.0380395253499349
        zero_point:
        -   -128
        ori_min:
        -   0.0
        ori_max:
        -   9.700078964233398
    /model.8/Split_output_1:
        qtype: asym
        qmethod: layer
        dtype: int8
        min:
        -   0.0
        max:
        -   12.662805557250977
        scale:
        -   0.04965806100882736
        zero_point:
        -   -128
        ori_min:
        -   0.0
        ori_max:
        -   12.662805557250977
    /model.8/m.0/cv1/conv/Conv_output_0:
        qtype: asym
        qmethod: layer
        dtype: int8
        min:
        -   0.0
        max:
        -   11.904176712036133
        scale:
        -   0.04668304592955346
        zero_point:
        -   -128
        ori_min:
        -   -8.708181381225586
        ori_max:
        -   11.904176712036133
    /model.8/m.0/cv1/act/Relu_output_0:
        qtype: asym
        qmethod: layer
        dtype: int8
        min:
        -   0.0
        max:
        -   11.904176712036133
        scale:
        -   0.04668304592955346
        zero_point:
        -   -128
        ori_min:
        -   0.0
        ori_max:
        -   11.904176712036133
    /model.8/m.0/cv2/conv/Conv_output_0:
        qtype: asym
        qmethod: layer
        dtype: int8
        min:
        -   0.0
        max:
        -   10.406421661376953
        scale:
        -   0.040809496711282166
        zero_point:
        -   -128
        ori_min:
        -   -10.225006103515625
        ori_max:
        -   10.406421661376953
    /model.8/m.0/cv2/act/Relu_output_0:
        qtype: asym
        qmethod: layer
        dtype: int8
        min:
        -   0.0
        max:
        -   10.406421661376953
        scale:
        -   0.040809496711282166
        zero_point:
        -   -128
        ori_min:
        -   0.0
        ori_max:
        -   10.406421661376953
    /model.8/m.0/Add_output_0:
        qtype: asym
        qmethod: layer
        dtype: int8
        min:
        -   0.0
        max:
        -   12.662805557250977
        scale:
        -   0.04965806100882736
        zero_point:
        -   -128
        ori_min:
        -   0.0
        ori_max:
        -   12.662805557250977
    /model.8/Concat_output_0:
        qtype: asym
        qmethod: layer
        dtype: int8
        min:
        -   0.0
        max:
        -   12.662805557250977
        scale:
        -   0.04965806100882736
        zero_point:
        -   -128
        ori_min:
        -   0.0
        ori_max:
        -   12.662805557250977
    /model.8/cv2/conv/Conv_output_0:
        qtype: asym
        qmethod: layer
        dtype: int8
        min:
        -   0.0
        max:
        -   8.40695571899414
        scale:
        -   0.032968453799977024
        zero_point:
        -   -128
        ori_min:
        -   -9.674044609069824
        ori_max:
        -   8.40695571899414
    /model.8/cv2/act/Relu_output_0:
        qtype: asym
        qmethod: layer
        dtype: int8
        min:
        -   0.0
        max:
        -   8.40695571899414
        scale:
        -   0.032968453799977024
        zero_point:
        -   -128
        ori_min:
        -   0.0
        ori_max:
        -   8.40695571899414
    /model.9/cv1/conv/Conv_output_0:
        qtype: asym
        qmethod: layer
        dtype: int8
        min:
        -   0.0
        max:
        -   7.349131107330322
        scale:
        -   0.028820121989530677
        zero_point:
        -   -128
        ori_min:
        -   -8.485200881958008
        ori_max:
        -   7.349131107330322
    /model.9/cv1/act/Relu_output_0:
        qtype: asym
        qmethod: layer
        dtype: int8
        min:
        -   0.0
        max:
        -   7.349131107330322
        scale:
        -   0.028820121989530677
        zero_point:
        -   -128
        ori_min:
        -   0.0
        ori_max:
        -   7.349131107330322
    /model.9/m/MaxPool_output_0:
        qtype: asym
        qmethod: layer
        dtype: int8
        min:
        -   0.0
        max:
        -   7.349131107330322
        scale:
        -   0.028820121989530677
        zero_point:
        -   -128
        ori_min:
        -   0.0
        ori_max:
        -   7.349131107330322
    /model.9/m_1/MaxPool_output_0:
        qtype: asym
        qmethod: layer
        dtype: int8
        min:
        -   0.0
        max:
        -   7.349131107330322
        scale:
        -   0.028820121989530677
        zero_point:
        -   -128
        ori_min:
        -   0.0
        ori_max:
        -   7.349131107330322
    /model.9/m_2/MaxPool_output_0:
        qtype: asym
        qmethod: layer
        dtype: int8
        min:
        -   0.0
        max:
        -   7.349131107330322
        scale:
        -   0.028820121989530677
        zero_point:
        -   -128
        ori_min:
        -   0.0
        ori_max:
        -   7.349131107330322
    /model.9/Concat_output_0:
        qtype: asym
        qmethod: layer
        dtype: int8
        min:
        -   0.0
        max:
        -   7.349131107330322
        scale:
        -   0.028820121989530677
        zero_point:
        -   -128
        ori_min:
        -   0.0
        ori_max:
        -   7.349131107330322
    /model.9/cv2/conv/Conv_output_0:
        qtype: asym
        qmethod: layer
        dtype: int8
        min:
        -   0.0
        max:
        -   7.073349952697754
        scale:
        -   0.02773862726548139
        zero_point:
        -   -128
        ori_min:
        -   -5.656792163848877
        ori_max:
        -   7.073349952697754
    /model.9/cv2/act/Relu_output_0:
        qtype: asym
        qmethod: layer
        dtype: int8
        min:
        -   0.0
        max:
        -   7.073349952697754
        scale:
        -   0.02773862726548139
        zero_point:
        -   -128
        ori_min:
        -   0.0
        ori_max:
        -   7.073349952697754
    /model.10/Upsample_output_0:
        qtype: asym
        qmethod: layer
        dtype: int8
        min:
        -   0.0
        max:
        -   7.073349952697754
        scale:
        -   0.02773862726548139
        zero_point:
        -   -128
        ori_min:
        -   0.0
        ori_max:
        -   7.073349952697754
    /model.11/Concat_output_0:
        qtype: asym
        qmethod: layer
        dtype: int8
        min:
        -   0.0
        max:
        -   13.332300186157227
        scale:
        -   0.052283530141793044
        zero_point:
        -   -128
        ori_min:
        -   0.0
        ori_max:
        -   13.332300186157227
    /model.12/cv1/conv/Conv_output_0:
        qtype: asym
        qmethod: layer
        dtype: int8
        min:
        -   0.0
        max:
        -   8.053016662597656
        scale:
        -   0.031580457500382964
        zero_point:
        -   -128
        ori_min:
        -   -9.602394104003906
        ori_max:
        -   8.053016662597656
    /model.12/cv1/act/Relu_output_0:
        qtype: asym
        qmethod: layer
        dtype: int8
        min:
        -   0.0
        max:
        -   8.053016662597656
        scale:
        -   0.031580457500382964
        zero_point:
        -   -128
        ori_min:
        -   0.0
        ori_max:
        -   8.053016662597656
    /model.12/Split_output_0:
        qtype: asym
        qmethod: layer
        dtype: int8
        min:
        -   0.0
        max:
        -   7.83612585067749
        scale:
        -   0.03072990529677447
        zero_point:
        -   -128
        ori_min:
        -   0.0
        ori_max:
        -   7.83612585067749
    /model.12/Split_output_1:
        qtype: asym
        qmethod: layer
        dtype: int8
        min:
        -   0.0
        max:
        -   8.053016662597656
        scale:
        -   0.031580457500382964
        zero_point:
        -   -128
        ori_min:
        -   0.0
        ori_max:
        -   8.053016662597656
    /model.12/m.0/cv1/conv/Conv_output_0:
        qtype: asym
        qmethod: layer
        dtype: int8
        min:
        -   0.0
        max:
        -   10.730838775634766
        scale:
        -   0.042081720688763785
        zero_point:
        -   -128
        ori_min:
        -   -12.826740264892578
        ori_max:
        -   10.730838775634766
    /model.12/m.0/cv1/act/Relu_output_0:
        qtype: asym
        qmethod: layer
        dtype: int8
        min:
        -   0.0
        max:
        -   10.730838775634766
        scale:
        -   0.042081720688763785
        zero_point:
        -   -128
        ori_min:
        -   0.0
        ori_max:
        -   10.730838775634766
    /model.12/m.0/cv2/conv/Conv_output_0:
        qtype: asym
        qmethod: layer
        dtype: int8
        min:
        -   0.0
        max:
        -   16.996309280395508
        scale:
        -   0.06665219325645297
        zero_point:
        -   -128
        ori_min:
        -   -12.052339553833008
        ori_max:
        -   16.996309280395508
    /model.12/m.0/cv2/act/Relu_output_0:
        qtype: asym
        qmethod: layer
        dtype: int8
        min:
        -   0.0
        max:
        -   16.996309280395508
        scale:
        -   0.06665219325645297
        zero_point:
        -   -128
        ori_min:
        -   0.0
        ori_max:
        -   16.996309280395508
    /model.12/Concat_output_0:
        qtype: asym
        qmethod: layer
        dtype: int8
        min:
        -   0.0
        max:
        -   16.996309280395508
        scale:
        -   0.06665219325645297
        zero_point:
        -   -128
        ori_min:
        -   0.0
        ori_max:
        -   16.996309280395508
    /model.12/cv2/conv/Conv_output_0:
        qtype: asym
        qmethod: layer
        dtype: int8
        min:
        -   0.0
        max:
        -   14.045387268066406
        scale:
        -   0.05507995007084865
        zero_point:
        -   -128
        ori_min:
        -   -12.106804847717285
        ori_max:
        -   14.045387268066406
    /model.12/cv2/act/Relu_output_0:
        qtype: asym
        qmethod: layer
        dtype: int8
        min:
        -   0.0
        max:
        -   14.045387268066406
        scale:
        -   0.05507995007084865
        zero_point:
        -   -128
        ori_min:
        -   0.0
        ori_max:
        -   14.045387268066406
    /model.13/Upsample_output_0:
        qtype: asym
        qmethod: layer
        dtype: int8
        min:
        -   0.0
        max:
        -   14.045387268066406
        scale:
        -   0.05507995007084865
        zero_point:
        -   -128
        ori_min:
        -   0.0
        ori_max:
        -   14.045387268066406
    /model.14/Concat_output_0:
        qtype: asym
        qmethod: layer
        dtype: int8
        min:
        -   0.0
        max:
        -   14.045387268066406
        scale:
        -   0.05507995007084865
        zero_point:
        -   -128
        ori_min:
        -   0.0
        ori_max:
        -   14.045387268066406
    /model.15/cv1/conv/Conv_output_0:
        qtype: asym
        qmethod: layer
        dtype: int8
        min:
        -   0.0
        max:
        -   14.229025840759277
        scale:
        -   0.055800101336310894
        zero_point:
        -   -128
        ori_min:
        -   -11.943659782409668
        ori_max:
        -   14.229025840759277
    /model.15/cv1/act/Relu_output_0:
        qtype: asym
        qmethod: layer
        dtype: int8
        min:
        -   0.0
        max:
        -   14.229025840759277
        scale:
        -   0.055800101336310894
        zero_point:
        -   -128
        ori_min:
        -   0.0
        ori_max:
        -   14.229025840759277
    /model.15/Split_output_0:
        qtype: asym
        qmethod: layer
        dtype: int8
        min:
        -   0.0
        max:
        -   14.229025840759277
        scale:
        -   0.055800101336310894
        zero_point:
        -   -128
        ori_min:
        -   0.0
        ori_max:
        -   14.229025840759277
    /model.15/Split_output_1:
        qtype: asym
        qmethod: layer
        dtype: int8
        min:
        -   0.0
        max:
        -   11.442026138305664
        scale:
        -   0.04487069073845359
        zero_point:
        -   -128
        ori_min:
        -   0.0
        ori_max:
        -   11.442026138305664
    /model.15/m.0/cv1/conv/Conv_output_0:
        qtype: asym
        qmethod: layer
        dtype: int8
        min:
        -   0.0
        max:
        -   12.708566665649414
        scale:
        -   0.04983751633588006
        zero_point:
        -   -128
        ori_min:
        -   -13.980948448181152
        ori_max:
        -   12.708566665649414
    /model.15/m.0/cv1/act/Relu_output_0:
        qtype: asym
        qmethod: layer
        dtype: int8
        min:
        -   0.0
        max:
        -   12.708566665649414
        scale:
        -   0.04983751633588006
        zero_point:
        -   -128
        ori_min:
        -   0.0
        ori_max:
        -   12.708566665649414
    /model.15/m.0/cv2/conv/Conv_output_0:
        qtype: asym
        qmethod: layer
        dtype: int8
        min:
        -   0.0
        max:
        -   22.907833099365234
        scale:
        -   0.08983463960535386
        zero_point:
        -   -128
        ori_min:
        -   -26.61929702758789
        ori_max:
        -   22.907833099365234
    /model.15/m.0/cv2/act/Relu_output_0:
        qtype: asym
        qmethod: layer
        dtype: int8
        min:
        -   0.0
        max:
        -   22.907833099365234
        scale:
        -   0.08983463960535386
        zero_point:
        -   -128
        ori_min:
        -   0.0
        ori_max:
        -   22.907833099365234
    /model.15/Concat_output_0:
        qtype: asym
        qmethod: layer
        dtype: int8
        min:
        -   0.0
        max:
        -   22.907833099365234
        scale:
        -   0.08983463960535386
        zero_point:
        -   -128
        ori_min:
        -   0.0
        ori_max:
        -   22.907833099365234
    /model.15/cv2/conv/Conv_output_0:
        qtype: asym
        qmethod: layer
        dtype: int8
        min:
        -   0.0
        max:
        -   14.818183898925781
        scale:
        -   0.058110525093826595
        zero_point:
        -   -128
        ori_min:
        -   -20.58856201171875
        ori_max:
        -   14.818183898925781
    /model.15/cv2/act/Relu_output_0:
        qtype: asym
        qmethod: layer
        dtype: int8
        min:
        -   0.0
        max:
        -   14.818183898925781
        scale:
        -   0.058110525093826595
        zero_point:
        -   -128
        ori_min:
        -   0.0
        ori_max:
        -   14.818183898925781
    /model.16/conv/Conv_output_0:
        qtype: asym
        qmethod: layer
        dtype: int8
        min:
        -   0.0
        max:
        -   22.94086456298828
        scale:
        -   0.08996417475681678
        zero_point:
        -   -128
        ori_min:
        -   -13.362520217895508
        ori_max:
        -   22.94086456298828
    /model.16/act/Relu_output_0:
        qtype: asym
        qmethod: layer
        dtype: int8
        min:
        -   0.0
        max:
        -   22.94086456298828
        scale:
        -   0.08996417475681678
        zero_point:
        -   -128
        ori_min:
        -   0.0
        ori_max:
        -   22.94086456298828
    /model.17/Concat_output_0:
        qtype: asym
        qmethod: layer
        dtype: int8
        min:
        -   0.0
        max:
        -   22.94086456298828
        scale:
        -   0.08996417475681678
        zero_point:
        -   -128
        ori_min:
        -   0.0
        ori_max:
        -   22.94086456298828
    /model.18/cv1/conv/Conv_output_0:
        qtype: asym
        qmethod: layer
        dtype: int8
        min:
        -   0.0
        max:
        -   26.381593704223633
        scale:
        -   0.1034572302126417
        zero_point:
        -   -128
        ori_min:
        -   -20.896055221557617
        ori_max:
        -   26.381593704223633
    /model.18/cv1/act/Relu_output_0:
        qtype: asym
        qmethod: layer
        dtype: int8
        min:
        -   0.0
        max:
        -   26.381593704223633
        scale:
        -   0.1034572302126417
        zero_point:
        -   -128
        ori_min:
        -   0.0
        ori_max:
        -   26.381593704223633
    /model.18/Split_output_0:
        qtype: asym
        qmethod: layer
        dtype: int8
        min:
        -   0.0
        max:
        -   26.381593704223633
        scale:
        -   0.1034572302126417
        zero_point:
        -   -128
        ori_min:
        -   0.0
        ori_max:
        -   26.381593704223633
    /model.18/Split_output_1:
        qtype: asym
        qmethod: layer
        dtype: int8
        min:
        -   0.0
        max:
        -   16.29422378540039
        scale:
        -   0.06389891680549173
        zero_point:
        -   -128
        ori_min:
        -   0.0
        ori_max:
        -   16.29422378540039
    /model.18/m.0/cv1/conv/Conv_output_0:
        qtype: asym
        qmethod: layer
        dtype: int8
        min:
        -   0.0
        max:
        -   13.59878921508789
        scale:
        -   0.05332858515720741
        zero_point:
        -   -128
        ori_min:
        -   -11.802323341369629
        ori_max:
        -   13.59878921508789
    /model.18/m.0/cv1/act/Relu_output_0:
        qtype: asym
        qmethod: layer
        dtype: int8
        min:
        -   0.0
        max:
        -   13.59878921508789
        scale:
        -   0.05332858515720741
        zero_point:
        -   -128
        ori_min:
        -   0.0
        ori_max:
        -   13.59878921508789
    /model.18/m.0/cv2/conv/Conv_output_0:
        qtype: asym
        qmethod: layer
        dtype: int8
        min:
        -   0.0
        max:
        -   11.805681228637695
        scale:
        -   0.04629678913191253
        zero_point:
        -   -128
        ori_min:
        -   -10.57777214050293
        ori_max:
        -   11.805681228637695
    /model.18/m.0/cv2/act/Relu_output_0:
        qtype: asym
        qmethod: layer
        dtype: int8
        min:
        -   0.0
        max:
        -   11.805681228637695
        scale:
        -   0.04629678913191253
        zero_point:
        -   -128
        ori_min:
        -   0.0
        ori_max:
        -   11.805681228637695
    /model.18/Concat_output_0:
        qtype: asym
        qmethod: layer
        dtype: int8
        min:
        -   0.0
        max:
        -   26.381593704223633
        scale:
        -   0.1034572302126417
        zero_point:
        -   -128
        ori_min:
        -   0.0
        ori_max:
        -   26.381593704223633
    /model.18/cv2/conv/Conv_output_0:
        qtype: asym
        qmethod: layer
        dtype: int8
        min:
        -   0.0
        max:
        -   27.00916290283203
        scale:
        -   0.10591828589345895
        zero_point:
        -   -128
        ori_min:
        -   -18.185508728027344
        ori_max:
        -   27.00916290283203
    /model.18/cv2/act/Relu_output_0:
        qtype: asym
        qmethod: layer
        dtype: int8
        min:
        -   0.0
        max:
        -   27.00916290283203
        scale:
        -   0.10591828589345895
        zero_point:
        -   -128
        ori_min:
        -   0.0
        ori_max:
        -   27.00916290283203
    /model.19/conv/Conv_output_0:
        qtype: asym
        qmethod: layer
        dtype: int8
        min:
        -   0.0
        max:
        -   12.357919692993164
        scale:
        -   0.04846243016860064
        zero_point:
        -   -128
        ori_min:
        -   -11.888875961303711
        ori_max:
        -   12.357919692993164
    /model.19/act/Relu_output_0:
        qtype: asym
        qmethod: layer
        dtype: int8
        min:
        -   0.0
        max:
        -   12.357919692993164
        scale:
        -   0.04846243016860064
        zero_point:
        -   -128
        ori_min:
        -   0.0
        ori_max:
        -   12.357919692993164
    /model.20/Concat_output_0:
        qtype: asym
        qmethod: layer
        dtype: int8
        min:
        -   0.0
        max:
        -   12.357919692993164
        scale:
        -   0.04846243016860064
        zero_point:
        -   -128
        ori_min:
        -   0.0
        ori_max:
        -   12.357919692993164
    /model.21/cv1/conv/Conv_output_0:
        qtype: asym
        qmethod: layer
        dtype: int8
        min:
        -   0.0
        max:
        -   13.207573890686035
        scale:
        -   0.05179440741445504
        zero_point:
        -   -128
        ori_min:
        -   -10.975830078125
        ori_max:
        -   13.207573890686035
    /model.21/cv1/act/Relu_output_0:
        qtype: asym
        qmethod: layer
        dtype: int8
        min:
        -   0.0
        max:
        -   13.207573890686035
        scale:
        -   0.05179440741445504
        zero_point:
        -   -128
        ori_min:
        -   0.0
        ori_max:
        -   13.207573890686035
    /model.21/Split_output_0:
        qtype: asym
        qmethod: layer
        dtype: int8
        min:
        -   0.0
        max:
        -   11.165107727050781
        scale:
        -   0.04378473618451287
        zero_point:
        -   -128
        ori_min:
        -   0.0
        ori_max:
        -   11.165107727050781
    /model.21/Split_output_1:
        qtype: asym
        qmethod: layer
        dtype: int8
        min:
        -   0.0
        max:
        -   13.207573890686035
        scale:
        -   0.05179440741445504
        zero_point:
        -   -128
        ori_min:
        -   0.0
        ori_max:
        -   13.207573890686035
    /model.21/m.0/cv1/conv/Conv_output_0:
        qtype: asym
        qmethod: layer
        dtype: int8
        min:
        -   0.0
        max:
        -   14.164225578308105
        scale:
        -   0.05554598266003179
        zero_point:
        -   -128
        ori_min:
        -   -12.642889976501465
        ori_max:
        -   14.164225578308105
    /model.21/m.0/cv1/act/Relu_output_0:
        qtype: asym
        qmethod: layer
        dtype: int8
        min:
        -   0.0
        max:
        -   14.164225578308105
        scale:
        -   0.05554598266003179
        zero_point:
        -   -128
        ori_min:
        -   0.0
        ori_max:
        -   14.164225578308105
    /model.21/m.0/cv2/conv/Conv_output_0:
        qtype: asym
        qmethod: layer
        dtype: int8
        min:
        -   0.0
        max:
        -   12.494795799255371
        scale:
        -   0.04899919921276616
        zero_point:
        -   -128
        ori_min:
        -   -11.503631591796875
        ori_max:
        -   12.494795799255371
    /model.21/m.0/cv2/act/Relu_output_0:
        qtype: asym
        qmethod: layer
        dtype: int8
        min:
        -   0.0
        max:
        -   12.494795799255371
        scale:
        -   0.04899919921276616
        zero_point:
        -   -128
        ori_min:
        -   0.0
        ori_max:
        -   12.494795799255371
    /model.21/Concat_output_0:
        qtype: asym
        qmethod: layer
        dtype: int8
        min:
        -   0.0
        max:
        -   13.207573890686035
        scale:
        -   0.05179440741445504
        zero_point:
        -   -128
        ori_min:
        -   0.0
        ori_max:
        -   13.207573890686035
    /model.21/cv2/conv/Conv_output_0:
        qtype: asym
        qmethod: layer
        dtype: int8
        min:
        -   0.0
        max:
        -   13.8132963180542
        scale:
        -   0.05416978948256549
        zero_point:
        -   -128
        ori_min:
        -   -11.873041152954102
        ori_max:
        -   13.8132963180542
    /model.21/cv2/act/Relu_output_0:
        qtype: asym
        qmethod: layer
        dtype: int8
        min:
        -   0.0
        max:
        -   13.8132963180542
        scale:
        -   0.05416978948256549
        zero_point:
        -   -128
        ori_min:
        -   0.0
        ori_max:
        -   13.8132963180542
    /model.22/cv2.2/cv2.2.0/conv/Conv_output_0:
        qtype: asym
        qmethod: layer
        dtype: int8
        min:
        -   0.0
        max:
        -   9.257413864135742
        scale:
        -   0.03630358378092448
        zero_point:
        -   -128
        ori_min:
        -   -10.362492561340332
        ori_max:
        -   9.257413864135742
    /model.22/cv2.2/cv2.2.0/act/Relu_output_0:
        qtype: asym
        qmethod: layer
        dtype: int8
        min:
        -   0.0
        max:
        -   9.257413864135742
        scale:
        -   0.03630358378092448
        zero_point:
        -   -128
        ori_min:
        -   0.0
        ori_max:
        -   9.257413864135742
    /model.22/cv2.2/cv2.2.1/conv/Conv_output_0:
        qtype: asym
        qmethod: layer
        dtype: int8
        min:
        -   0.0
        max:
        -   11.916268348693848
        scale:
        -   0.04673046411252489
        zero_point:
        -   -128
        ori_min:
        -   -7.962759017944336
        ori_max:
        -   11.916268348693848
    /model.22/cv2.2/cv2.2.1/act/Relu_output_0:
        qtype: asym
        qmethod: layer
        dtype: int8
        min:
        -   0.0
        max:
        -   11.916268348693848
        scale:
        -   0.04673046411252489
        zero_point:
        -   -128
        ori_min:
        -   0.0
        ori_max:
        -   11.916268348693848
    '314':
        qtype: asym
        qmethod: layer
        dtype: float32
        min:
        -   -3.554638385772705
        max:
        -   9.044251441955566
        scale: []
        zero_point: []
        ori_min:
        -   -3.554638385772705
        ori_max:
        -   9.044251441955566
    /model.22/cv3.2/cv3.2.0/cv3.2.0.0/conv/Conv_output_0:
        qtype: asym
        qmethod: layer
        dtype: int8
        min:
        -   0.0
        max:
        -   14.747800827026367
        scale:
        -   0.05783451304716222
        zero_point:
        -   -128
        ori_min:
        -   -17.219675064086914
        ori_max:
        -   14.747800827026367
    /model.22/cv3.2/cv3.2.0/cv3.2.0.0/act/Relu_output_0:
        qtype: asym
        qmethod: layer
        dtype: int8
        min:
        -   0.0
        max:
        -   14.747800827026367
        scale:
        -   0.05783451304716222
        zero_point:
        -   -128
        ori_min:
        -   0.0
        ori_max:
        -   14.747800827026367
    /model.22/cv3.2/cv3.2.0/cv3.2.0.1/conv/Conv_output_0:
        qtype: asym
        qmethod: layer
        dtype: int8
        min:
        -   0.0
        max:
        -   8.80342960357666
        scale:
        -   0.03452325334735945
        zero_point:
        -   -128
        ori_min:
        -   -8.847406387329102
        ori_max:
        -   8.80342960357666
    /model.22/cv3.2/cv3.2.0/cv3.2.0.1/act/Relu_output_0:
        qtype: asym
        qmethod: layer
        dtype: int8
        min:
        -   0.0
        max:
        -   8.80342960357666
        scale:
        -   0.03452325334735945
        zero_point:
        -   -128
        ori_min:
        -   0.0
        ori_max:
        -   8.80342960357666
    /model.22/cv3.2/cv3.2.1/cv3.2.1.0/conv/Conv_output_0:
        qtype: asym
        qmethod: layer
        dtype: int8
        min:
        -   0.0
        max:
        -   12.580979347229004
        scale:
        -   0.04933717391070198
        zero_point:
        -   -128
        ori_min:
        -   -10.332422256469727
        ori_max:
        -   12.580979347229004
    /model.22/cv3.2/cv3.2.1/cv3.2.1.0/act/Relu_output_0:
        qtype: asym
        qmethod: layer
        dtype: int8
        min:
        -   0.0
        max:
        -   12.580979347229004
        scale:
        -   0.04933717391070198
        zero_point:
        -   -128
        ori_min:
        -   0.0
        ori_max:
        -   12.580979347229004
    /model.22/cv3.2/cv3.2.1/cv3.2.1.1/conv/Conv_output_0:
        qtype: asym
        qmethod: layer
        dtype: int8
        min:
        -   0.0
        max:
        -   9.897201538085938
        scale:
        -   0.0388125550513174
        zero_point:
        -   -128
        ori_min:
        -   -7.74834680557251
        ori_max:
        -   9.897201538085938
    /model.22/cv3.2/cv3.2.1/cv3.2.1.1/act/Relu_output_0:
        qtype: asym
        qmethod: layer
        dtype: int8
        min:
        -   0.0
        max:
        -   9.897201538085938
        scale:
        -   0.0388125550513174
        zero_point:
        -   -128
        ori_min:
        -   0.0
        ori_max:
        -   9.897201538085938
    /model.22/cv3.2/cv3.2.2/Conv_output_0:
        qtype: asym
        qmethod: layer
        dtype: int8
        min:
        -   -7.0
        max:
        -   0.0
        scale:
        -   0.027450980392156862
        zero_point:
        -   127
        ori_min:
        -   -26.138505935668945
        ori_max:
        -   -3.467236042022705
    onnx::ReduceSum_324:
        qtype: asym
        qmethod: layer
        dtype: float32
        min:
        -   0.0
        max:
        -   0.03025895357131958
        scale: []
        zero_point: []
        ori_min:
        -   0.0
        ori_max:
        -   0.03025895357131958
    '326':
        qtype: asym
        qmethod: layer
        dtype: float32
        min:
        -   0.0
        max:
        -   0.03025895357131958
        scale: []
        zero_point: []
        ori_min:
        -   0.0
        ori_max:
        -   0.03025895357131958
    /model.22/cv2.1/cv2.1.0/conv/Conv_output_0:
        qtype: asym
        qmethod: layer
        dtype: int8
        min:
        -   0.0
        max:
        -   14.641668319702148
        scale:
        -   0.05741830713608686
        zero_point:
        -   -128
        ori_min:
        -   -13.448408126831055
        ori_max:
        -   14.641668319702148
    /model.22/cv2.1/cv2.1.0/act/Relu_output_0:
        qtype: asym
        qmethod: layer
        dtype: int8
        min:
        -   0.0
        max:
        -   14.641668319702148
        scale:
        -   0.05741830713608686
        zero_point:
        -   -128
        ori_min:
        -   0.0
        ori_max:
        -   14.641668319702148
    /model.22/cv2.1/cv2.1.1/conv/Conv_output_0:
        qtype: asym
        qmethod: layer
        dtype: int8
        min:
        -   0.0
        max:
        -   12.602134704589844
        scale:
        -   0.04942013609643076
        zero_point:
        -   -128
        ori_min:
        -   -11.409143447875977
        ori_max:
        -   12.602134704589844
    /model.22/cv2.1/cv2.1.1/act/Relu_output_0:
        qtype: asym
        qmethod: layer
        dtype: int8
        min:
        -   0.0
        max:
        -   12.602134704589844
        scale:
        -   0.04942013609643076
        zero_point:
        -   -128
        ori_min:
        -   0.0
        ori_max:
        -   12.602134704589844
    '297':
        qtype: asym
        qmethod: layer
        dtype: float32
        min:
        -   -7.76176643371582
        max:
        -   10.798676490783691
        scale: []
        zero_point: []
        ori_min:
        -   -7.76176643371582
        ori_max:
        -   10.798676490783691
    /model.22/cv3.1/cv3.1.0/cv3.1.0.0/conv/Conv_output_0:
        qtype: asym
        qmethod: layer
        dtype: int8
        min:
        -   0.0
        max:
        -   37.246307373046875
        scale:
        -   0.14606395048253676
        zero_point:
        -   -128
        ori_min:
        -   -21.831762313842773
        ori_max:
        -   37.246307373046875
    /model.22/cv3.1/cv3.1.0/cv3.1.0.0/act/Relu_output_0:
        qtype: asym
        qmethod: layer
        dtype: int8
        min:
        -   0.0
        max:
        -   37.246307373046875
        scale:
        -   0.14606395048253676
        zero_point:
        -   -128
        ori_min:
        -   0.0
        ori_max:
        -   37.246307373046875
    /model.22/cv3.1/cv3.1.0/cv3.1.0.1/conv/Conv_output_0:
        qtype: asym
        qmethod: layer
        dtype: int8
        min:
        -   0.0
        max:
        -   16.749561309814453
        scale:
        -   0.06568455415613511
        zero_point:
        -   -128
        ori_min:
        -   -23.034679412841797
        ori_max:
        -   16.749561309814453
    /model.22/cv3.1/cv3.1.0/cv3.1.0.1/act/Relu_output_0:
        qtype: asym
        qmethod: layer
        dtype: int8
        min:
        -   0.0
        max:
        -   16.749561309814453
        scale:
        -   0.06568455415613511
        zero_point:
        -   -128
        ori_min:
        -   0.0
        ori_max:
        -   16.749561309814453
    /model.22/cv3.1/cv3.1.1/cv3.1.1.0/conv/Conv_output_0:
        qtype: asym
        qmethod: layer
        dtype: int8
        min:
        -   0.0
        max:
        -   27.06554412841797
        scale:
        -   0.10613938873889399
        zero_point:
        -   -128
        ori_min:
        -   -28.6289119720459
        ori_max:
        -   27.06554412841797
    /model.22/cv3.1/cv3.1.1/cv3.1.1.0/act/Relu_output_0:
        qtype: asym
        qmethod: layer
        dtype: int8
        min:
        -   0.0
        max:
        -   27.06554412841797
        scale:
        -   0.10613938873889399
        zero_point:
        -   -128
        ori_min:
        -   0.0
        ori_max:
        -   27.06554412841797
    /model.22/cv3.1/cv3.1.1/cv3.1.1.1/conv/Conv_output_0:
        qtype: asym
        qmethod: layer
        dtype: int8
        min:
        -   0.0
        max:
        -   30.25478744506836
        scale:
        -   0.11864622527477788
        zero_point:
        -   -128
        ori_min:
        -   -15.293951034545898
        ori_max:
        -   30.25478744506836
    /model.22/cv3.1/cv3.1.1/cv3.1.1.1/act/Relu_output_0:
        qtype: asym
        qmethod: layer
        dtype: int8
        min:
        -   0.0
        max:
        -   30.25478744506836
        scale:
        -   0.11864622527477788
        zero_point:
        -   -128
        ori_min:
        -   0.0
        ori_max:
        -   30.25478744506836
    /model.22/cv3.1/cv3.1.2/Conv_output_0:
        qtype: asym
        qmethod: layer
        dtype: int8
        min:
        -   -7.0
        max:
        -   1.6743144989013672
        scale:
        -   0.03401691960353477
        zero_point:
        -   78
        ori_min:
        -   -55.70834732055664
        ori_max:
        -   1.6743144989013672
    onnx::ReduceSum_307:
        qtype: asym
        qmethod: layer
        dtype: float32
        min:
        -   0.0
        max:
        -   0.8421502113342285
        scale: []
        zero_point: []
        ori_min:
        -   0.0
        ori_max:
        -   0.8421502113342285
    '309':
        qtype: asym
        qmethod: layer
        dtype: float32
        min:
        -   0.0
        max:
        -   0.8421502113342285
        scale: []
        zero_point: []
        ori_min:
        -   0.0
        ori_max:
        -   0.8421502113342285
    /model.22/cv2.0/cv2.0.0/conv/Conv_output_0:
        qtype: asym
        qmethod: layer
        dtype: int8
        min:
        -   0.0
        max:
        -   13.368422508239746
        scale:
        -   0.05242518630682253
        zero_point:
        -   -128
        ori_min:
        -   -23.393203735351562
        ori_max:
        -   13.368422508239746
    /model.22/cv2.0/cv2.0.0/act/Relu_output_0:
        qtype: asym
        qmethod: layer
        dtype: int8
        min:
        -   0.0
        max:
        -   13.368422508239746
        scale:
        -   0.05242518630682253
        zero_point:
        -   -128
        ori_min:
        -   0.0
        ori_max:
        -   13.368422508239746
    /model.22/cv2.0/cv2.0.1/conv/Conv_output_0:
        qtype: asym
        qmethod: layer
        dtype: int8
        min:
        -   0.0
        max:
        -   16.03567123413086
        scale:
        -   0.06288498523188572
        zero_point:
        -   -128
        ori_min:
        -   -10.07515811920166
        ori_max:
        -   16.03567123413086
    /model.22/cv2.0/cv2.0.1/act/Relu_output_0:
        qtype: asym
        qmethod: layer
        dtype: int8
        min:
        -   0.0
        max:
        -   16.03567123413086
        scale:
        -   0.06288498523188572
        zero_point:
        -   -128
        ori_min:
        -   0.0
        ori_max:
        -   16.03567123413086
    '280':
        qtype: asym
        qmethod: layer
        dtype: float32
        min:
        -   -11.634282112121582
        max:
        -   22.078052520751953
        scale: []
        zero_point: []
        ori_min:
        -   -11.634282112121582
        ori_max:
        -   22.078052520751953
    /model.22/cv3.0/cv3.0.0/cv3.0.0.0/conv/Conv_output_0:
        qtype: asym
        qmethod: layer
        dtype: int8
        min:
        -   0.0
        max:
        -   49.606842041015625
        scale:
        -   0.19453663545496325
        zero_point:
        -   -128
        ori_min:
        -   -61.382572174072266
        ori_max:
        -   49.606842041015625
    /model.22/cv3.0/cv3.0.0/cv3.0.0.0/act/Relu_output_0:
        qtype: asym
        qmethod: layer
        dtype: int8
        min:
        -   0.0
        max:
        -   49.606842041015625
        scale:
        -   0.19453663545496325
        zero_point:
        -   -128
        ori_min:
        -   0.0
        ori_max:
        -   49.606842041015625
    /model.22/cv3.0/cv3.0.0/cv3.0.0.1/conv/Conv_output_0:
        qtype: asym
        qmethod: layer
        dtype: int8
        min:
        -   0.0
        max:
        -   41.85686492919922
        scale:
        -   0.16414456834980085
        zero_point:
        -   -128
        ori_min:
        -   -25.034008026123047
        ori_max:
        -   41.85686492919922
    /model.22/cv3.0/cv3.0.0/cv3.0.0.1/act/Relu_output_0:
        qtype: asym
        qmethod: layer
        dtype: int8
        min:
        -   0.0
        max:
        -   41.85686492919922
        scale:
        -   0.16414456834980085
        zero_point:
        -   -128
        ori_min:
        -   0.0
        ori_max:
        -   41.85686492919922
    /model.22/cv3.0/cv3.0.1/cv3.0.1.0/conv/Conv_output_0:
        qtype: asym
        qmethod: layer
        dtype: int8
        min:
        -   0.0
        max:
        -   57.66042709350586
        scale:
        -   0.22611932193531709
        zero_point:
        -   -128
        ori_min:
        -   -90.02848815917969
        ori_max:
        -   57.66042709350586
    /model.22/cv3.0/cv3.0.1/cv3.0.1.0/act/Relu_output_0:
        qtype: asym
        qmethod: layer
        dtype: int8
        min:
        -   0.0
        max:
        -   57.66042709350586
        scale:
        -   0.22611932193531709
        zero_point:
        -   -128
        ori_min:
        -   0.0
        ori_max:
        -   57.66042709350586
    /model.22/cv3.0/cv3.0.1/cv3.0.1.1/conv/Conv_output_0:
        qtype: asym
        qmethod: layer
        dtype: int8
        min:
        -   0.0
        max:
        -   38.51847457885742
        scale:
        -   0.15105284148571538
        zero_point:
        -   -128
        ori_min:
        -   -41.63170623779297
        ori_max:
        -   38.51847457885742
    /model.22/cv3.0/cv3.0.1/cv3.0.1.1/act/Relu_output_0:
        qtype: asym
        qmethod: layer
        dtype: int8
        min:
        -   0.0
        max:
        -   38.51847457885742
        scale:
        -   0.15105284148571538
        zero_point:
        -   -128
        ori_min:
        -   0.0
        ori_max:
        -   38.51847457885742
    /model.22/cv3.0/cv3.0.2/Conv_output_0:
        qtype: asym
        qmethod: layer
        dtype: int8
        min:
        -   -7.0
        max:
        -   1.789912223815918
        scale:
        -   0.03447024401496438
        zero_point:
        -   75
        ori_min:
        -   -102.22300720214844
        ori_max:
        -   1.789912223815918
    onnx::ReduceSum_290:
        qtype: asym
        qmethod: layer
        dtype: float32
        min:
        -   0.0
        max:
        -   0.8569165468215942
        scale: []
        zero_point: []
        ori_min:
        -   0.0
        ori_max:
        -   0.8569165468215942
    '292':
        qtype: asym
        qmethod: layer
        dtype: float32
        min:
        -   0.0
        max:
        -   0.8569165468215942
        scale: []
        zero_point: []
        ori_min:
        -   0.0
        ori_max:
        -   0.8569165468215942
    images_int8:
        qtype: asym
        qmethod: layer
        dtype: int8
        min:
        -   0.0
        max:
        -   1.0
        scale:
        -   0.00392156862745098
        zero_point:
        -   -128
        ori_min:
        -   0.007843137718737125
        ori_max:
        -   1.0
    280_int8:
        qtype: asym
        qmethod: layer
        dtype: int8
        min:
        -   -11.634282112121582
        max:
        -   22.078052520751953
        scale:
        -   0.13220523385440602
        zero_point:
        -   -40
        ori_min:
        -   -11.634282112121582
        ori_max:
        -   22.078052520751953
    onnx::ReduceSum_290_int8:
        qtype: asym
        qmethod: layer
        dtype: int8
        min:
        -   0.0
        max:
        -   0.8569165468215942
        scale:
        -   0.0033604570463591932
        zero_point:
        -   -128
        ori_min:
        -   0.0
        ori_max:
        -   0.8569165468215942
    292_int8:
        qtype: asym
        qmethod: layer
        dtype: int8
        min:
        -   0.0
        max:
        -   0.8569165468215942
        scale:
        -   0.0033604570463591932
        zero_point:
        -   -128
        ori_min:
        -   0.0
        ori_max:
        -   0.8569165468215942
    297_int8:
        qtype: asym
        qmethod: layer
        dtype: int8
        min:
        -   -7.76176643371582
        max:
        -   10.798676490783691
        scale:
        -   0.0727860506843118
        zero_point:
        -   -21
        ori_min:
        -   -7.76176643371582
        ori_max:
        -   10.798676490783691
    onnx::ReduceSum_307_int8:
        qtype: asym
        qmethod: layer
        dtype: int8
        min:
        -   0.0
        max:
        -   0.8421502113342285
        scale:
        -   0.0033025498483695236
        zero_point:
        -   -128
        ori_min:
        -   0.0
        ori_max:
        -   0.8421502113342285
    309_int8:
        qtype: asym
        qmethod: layer
        dtype: int8
        min:
        -   0.0
        max:
        -   0.8421502113342285
        scale:
        -   0.0033025498483695236
        zero_point:
        -   -128
        ori_min:
        -   0.0
        ori_max:
        -   0.8421502113342285
    314_int8:
        qtype: asym
        qmethod: layer
        dtype: int8
        min:
        -   -3.554638385772705
        max:
        -   9.044251441955566
        scale:
        -   0.04940741108913048
        zero_point:
        -   -56
        ori_min:
        -   -3.554638385772705
        ori_max:
        -   9.044251441955566
    onnx::ReduceSum_324_int8:
        qtype: asym
        qmethod: layer
        dtype: int8
        min:
        -   0.0
        max:
        -   0.5
        scale:
        -   0.00196078431372549
        zero_point:
        -   -128
        ori_min:
        -   0.0
        ori_max:
        -   0.03025895357131958
    326_int8:
        qtype: asym
        qmethod: layer
        dtype: int8
        min:
        -   0.0
        max:
        -   0.03025895357131958
        scale:
        -   0.00011866256302478266
        zero_point:
        -   -128
        ori_min:
        -   0.0
        ori_max:
        -   0.03025895357131958
