custom_quantize_layers:                                                                             # 0.9951474044858692
    /model.1/conv/Conv_output_0: float16
    /model.1/act/Relu_output_0: float16                                                             # 0.9954237236763194
    /model.0/conv/Conv_output_0: float16
    /model.0/act/Relu_output_0: float16                                                             # 0.9982068406436332
    /model.2/cv1/conv/Conv_output_0: float16
    /model.2/cv1/act/Relu_output_0: float16                                                         # 0.9989922527392586
    /model.2/Split_output_0: float16                                                                # 0.9990532178902466
    /model.2/Concat_output_0: float16                                                               # 0.9992451805938
    /model.2/cv2/conv/Conv_output_0: float16
    /model.2/cv2/act/Relu_output_0: float16                                                         # 0.9992992962062551
    /model.2/m.0/cv1/conv/Conv_output_0: float16
    /model.2/m.0/cv1/act/Relu_output_0: float16                                                     # 0.9993168227110811
    /model.4/cv1/conv/Conv_output_0: float16
    /model.4/cv1/act/Relu_output_0: float16                                                         # 0.9993563160563642
    /model.3/conv/Conv_output_0: float16
    /model.3/act/Relu_output_0: float16                                                             # 0.9995164045560353
    /model.4/Split_output_0: float16                                                                # 0.9995750411781119
    280_int8: float16                                                                               # 0.9996309782631667
    /model.2/m.0/Add_output_0: float16                                                              # 0.9996596530773475
    '280': float16                                                                                  # 0.9996596530773475
    /model.2/m.0/cv2/conv/Conv_output_0: float16
    /model.2/m.0/cv2/act/Relu_output_0: float16                                                     # 0.9997057856939646
    /model.4/cv2/conv/Conv_output_0: float16
    /model.4/cv2/act/Relu_output_0: float16                                                         # 0.9997090235516385
    /model.4/m.0/Add_output_0: float16                                                              # 0.9997253035316166
    /model.22/cv2.0/cv2.0.1/conv/Conv_output_0: float16
    /model.22/cv2.0/cv2.0.1/act/Relu_output_0: float16                                              # 0.9997501618050311
    /model.4/Concat_output_0: float16                                                               # 0.9997750949185376
quantize_parameters:
    images:
        qtype: asym
        qmethod: layer
        dtype: float32
        min:
        -   0.0117647061124444
        max:
        -   1.0
        scale: []
        zero_point: []
        ori_min:
        -   0.0117647061124444
        ori_max:
        -   1.0
    /model.0/conv/Conv_output_0:
        qtype: asym
        qmethod: layer
        dtype: int8
        min:
        -   0.0
        max:
        -   27.550216674804688
        scale:
        -   0.10804006539139094
        zero_point:
        -   -128
        ori_min:
        -   -27.237224578857422
        ori_max:
        -   27.550216674804688
    /model.0/act/Relu_output_0:
        qtype: asym
        qmethod: layer
        dtype: int8
        min:
        -   0.0
        max:
        -   27.550216674804688
        scale:
        -   0.10804006539139094
        zero_point:
        -   -128
        ori_min:
        -   0.0
        ori_max:
        -   27.550216674804688
    /model.1/conv/Conv_output_0:
        qtype: asym
        qmethod: layer
        dtype: int8
        min:
        -   0.0
        max:
        -   41.45280838012695
        scale:
        -   0.16256003286324294
        zero_point:
        -   -128
        ori_min:
        -   -42.70649337768555
        ori_max:
        -   41.45280838012695
    /model.1/act/Relu_output_0:
        qtype: asym
        qmethod: layer
        dtype: int8
        min:
        -   0.0
        max:
        -   41.45280838012695
        scale:
        -   0.16256003286324294
        zero_point:
        -   -128
        ori_min:
        -   0.0
        ori_max:
        -   41.45280838012695
    /model.2/cv1/conv/Conv_output_0:
        qtype: asym
        qmethod: layer
        dtype: int8
        min:
        -   0.0
        max:
        -   28.543067932128906
        scale:
        -   0.11193359973383885
        zero_point:
        -   -128
        ori_min:
        -   -39.764156341552734
        ori_max:
        -   28.543067932128906
    /model.2/cv1/act/Relu_output_0:
        qtype: asym
        qmethod: layer
        dtype: int8
        min:
        -   0.0
        max:
        -   28.543067932128906
        scale:
        -   0.11193359973383885
        zero_point:
        -   -128
        ori_min:
        -   0.0
        ori_max:
        -   28.543067932128906
    /model.2/Split_output_0:
        qtype: asym
        qmethod: layer
        dtype: int8
        min:
        -   0.0
        max:
        -   28.543067932128906
        scale:
        -   0.11193359973383885
        zero_point:
        -   -128
        ori_min:
        -   0.0
        ori_max:
        -   28.543067932128906
    /model.2/Split_output_1:
        qtype: asym
        qmethod: layer
        dtype: int8
        min:
        -   0.0
        max:
        -   24.048795700073242
        scale:
        -   0.09430900274538527
        zero_point:
        -   -128
        ori_min:
        -   0.0
        ori_max:
        -   24.048795700073242
    /model.2/m.0/cv1/conv/Conv_output_0:
        qtype: asym
        qmethod: layer
        dtype: int8
        min:
        -   0.0
        max:
        -   29.348363876342773
        scale:
        -   0.11509162304448146
        zero_point:
        -   -128
        ori_min:
        -   -30.101102828979492
        ori_max:
        -   29.348363876342773
    /model.2/m.0/cv1/act/Relu_output_0:
        qtype: asym
        qmethod: layer
        dtype: int8
        min:
        -   0.0
        max:
        -   29.348363876342773
        scale:
        -   0.11509162304448146
        zero_point:
        -   -128
        ori_min:
        -   0.0
        ori_max:
        -   29.348363876342773
    /model.2/m.0/cv2/conv/Conv_output_0:
        qtype: asym
        qmethod: layer
        dtype: int8
        min:
        -   0.0
        max:
        -   19.789461135864258
        scale:
        -   0.07760572994456572
        zero_point:
        -   -128
        ori_min:
        -   -30.030147552490234
        ori_max:
        -   19.789461135864258
    /model.2/m.0/cv2/act/Relu_output_0:
        qtype: asym
        qmethod: layer
        dtype: int8
        min:
        -   0.0
        max:
        -   19.789461135864258
        scale:
        -   0.07760572994456572
        zero_point:
        -   -128
        ori_min:
        -   0.0
        ori_max:
        -   19.789461135864258
    /model.2/m.0/Add_output_0:
        qtype: asym
        qmethod: layer
        dtype: int8
        min:
        -   0.0
        max:
        -   32.839683532714844
        scale:
        -   0.12878307267731312
        zero_point:
        -   -128
        ori_min:
        -   0.0
        ori_max:
        -   32.839683532714844
    /model.2/Concat_output_0:
        qtype: asym
        qmethod: layer
        dtype: int8
        min:
        -   0.0
        max:
        -   32.839683532714844
        scale:
        -   0.12878307267731312
        zero_point:
        -   -128
        ori_min:
        -   0.0
        ori_max:
        -   32.839683532714844
    /model.2/cv2/conv/Conv_output_0:
        qtype: asym
        qmethod: layer
        dtype: int8
        min:
        -   0.0
        max:
        -   28.77996253967285
        scale:
        -   0.1128625981947955
        zero_point:
        -   -128
        ori_min:
        -   -26.521692276000977
        ori_max:
        -   28.77996253967285
    /model.2/cv2/act/Relu_output_0:
        qtype: asym
        qmethod: layer
        dtype: int8
        min:
        -   0.0
        max:
        -   28.77996253967285
        scale:
        -   0.1128625981947955
        zero_point:
        -   -128
        ori_min:
        -   0.0
        ori_max:
        -   28.77996253967285
    /model.3/conv/Conv_output_0:
        qtype: asym
        qmethod: layer
        dtype: int8
        min:
        -   0.0
        max:
        -   22.612369537353516
        scale:
        -   0.08867595897001379
        zero_point:
        -   -128
        ori_min:
        -   -25.175373077392578
        ori_max:
        -   22.612369537353516
    /model.3/act/Relu_output_0:
        qtype: asym
        qmethod: layer
        dtype: int8
        min:
        -   0.0
        max:
        -   22.612369537353516
        scale:
        -   0.08867595897001379
        zero_point:
        -   -128
        ori_min:
        -   0.0
        ori_max:
        -   22.612369537353516
    /model.4/cv1/conv/Conv_output_0:
        qtype: asym
        qmethod: layer
        dtype: int8
        min:
        -   0.0
        max:
        -   18.366384506225586
        scale:
        -   0.07202503727931603
        zero_point:
        -   -128
        ori_min:
        -   -24.30043601989746
        ori_max:
        -   18.366384506225586
    /model.4/cv1/act/Relu_output_0:
        qtype: asym
        qmethod: layer
        dtype: int8
        min:
        -   0.0
        max:
        -   18.366384506225586
        scale:
        -   0.07202503727931603
        zero_point:
        -   -128
        ori_min:
        -   0.0
        ori_max:
        -   18.366384506225586
    /model.4/Split_output_0:
        qtype: asym
        qmethod: layer
        dtype: int8
        min:
        -   0.0
        max:
        -   18.366384506225586
        scale:
        -   0.07202503727931603
        zero_point:
        -   -128
        ori_min:
        -   0.0
        ori_max:
        -   18.366384506225586
    /model.4/Split_output_1:
        qtype: asym
        qmethod: layer
        dtype: int8
        min:
        -   0.0
        max:
        -   13.041315078735352
        scale:
        -   0.05114241207347197
        zero_point:
        -   -128
        ori_min:
        -   0.0
        ori_max:
        -   13.041315078735352
    /model.4/m.0/cv1/conv/Conv_output_0:
        qtype: asym
        qmethod: layer
        dtype: int8
        min:
        -   0.0
        max:
        -   16.54847526550293
        scale:
        -   0.06489598143334482
        zero_point:
        -   -128
        ori_min:
        -   -15.097082138061523
        ori_max:
        -   16.54847526550293
    /model.4/m.0/cv1/act/Relu_output_0:
        qtype: asym
        qmethod: layer
        dtype: int8
        min:
        -   0.0
        max:
        -   16.54847526550293
        scale:
        -   0.06489598143334482
        zero_point:
        -   -128
        ori_min:
        -   0.0
        ori_max:
        -   16.54847526550293
    /model.4/m.0/cv2/conv/Conv_output_0:
        qtype: asym
        qmethod: layer
        dtype: int8
        min:
        -   0.0
        max:
        -   11.94510269165039
        scale:
        -   0.04684353996725643
        zero_point:
        -   -128
        ori_min:
        -   -12.798552513122559
        ori_max:
        -   11.94510269165039
    /model.4/m.0/cv2/act/Relu_output_0:
        qtype: asym
        qmethod: layer
        dtype: int8
        min:
        -   0.0
        max:
        -   11.94510269165039
        scale:
        -   0.04684353996725643
        zero_point:
        -   -128
        ori_min:
        -   0.0
        ori_max:
        -   11.94510269165039
    /model.4/m.0/Add_output_0:
        qtype: asym
        qmethod: layer
        dtype: int8
        min:
        -   0.0
        max:
        -   16.780000686645508
        scale:
        -   0.06580392426135494
        zero_point:
        -   -128
        ori_min:
        -   0.0
        ori_max:
        -   16.780000686645508
    /model.4/m.1/cv1/conv/Conv_output_0:
        qtype: asym
        qmethod: layer
        dtype: int8
        min:
        -   0.0
        max:
        -   11.650527954101562
        scale:
        -   0.04568834491804534
        zero_point:
        -   -128
        ori_min:
        -   -16.8645076751709
        ori_max:
        -   11.650527954101562
    /model.4/m.1/cv1/act/Relu_output_0:
        qtype: asym
        qmethod: layer
        dtype: int8
        min:
        -   0.0
        max:
        -   11.650527954101562
        scale:
        -   0.04568834491804534
        zero_point:
        -   -128
        ori_min:
        -   0.0
        ori_max:
        -   11.650527954101562
    /model.4/m.1/cv2/conv/Conv_output_0:
        qtype: asym
        qmethod: layer
        dtype: int8
        min:
        -   0.0
        max:
        -   17.62416648864746
        scale:
        -   0.06911437838685279
        zero_point:
        -   -128
        ori_min:
        -   -15.189544677734375
        ori_max:
        -   17.62416648864746
    /model.4/m.1/cv2/act/Relu_output_0:
        qtype: asym
        qmethod: layer
        dtype: int8
        min:
        -   0.0
        max:
        -   17.62416648864746
        scale:
        -   0.06911437838685279
        zero_point:
        -   -128
        ori_min:
        -   0.0
        ori_max:
        -   17.62416648864746
    /model.4/m.1/Add_output_0:
        qtype: asym
        qmethod: layer
        dtype: int8
        min:
        -   0.0
        max:
        -   21.653419494628906
        scale:
        -   0.08491537056717219
        zero_point:
        -   -128
        ori_min:
        -   0.0
        ori_max:
        -   21.653419494628906
    /model.4/Concat_output_0:
        qtype: asym
        qmethod: layer
        dtype: int8
        min:
        -   0.0
        max:
        -   21.653419494628906
        scale:
        -   0.08491537056717219
        zero_point:
        -   -128
        ori_min:
        -   0.0
        ori_max:
        -   21.653419494628906
    /model.4/cv2/conv/Conv_output_0:
        qtype: asym
        qmethod: layer
        dtype: int8
        min:
        -   0.0
        max:
        -   15.785252571105957
        scale:
        -   0.061902951259239045
        zero_point:
        -   -128
        ori_min:
        -   -16.30560874938965
        ori_max:
        -   15.785252571105957
    /model.4/cv2/act/Relu_output_0:
        qtype: asym
        qmethod: layer
        dtype: int8
        min:
        -   0.0
        max:
        -   15.785252571105957
        scale:
        -   0.061902951259239045
        zero_point:
        -   -128
        ori_min:
        -   0.0
        ori_max:
        -   15.785252571105957
    /model.5/conv/Conv_output_0:
        qtype: asym
        qmethod: layer
        dtype: int8
        min:
        -   0.0
        max:
        -   10.544651985168457
        scale:
        -   0.041351576412425324
        zero_point:
        -   -128
        ori_min:
        -   -8.770553588867188
        ori_max:
        -   10.544651985168457
    /model.5/act/Relu_output_0:
        qtype: asym
        qmethod: layer
        dtype: int8
        min:
        -   0.0
        max:
        -   10.544651985168457
        scale:
        -   0.041351576412425324
        zero_point:
        -   -128
        ori_min:
        -   0.0
        ori_max:
        -   10.544651985168457
    /model.6/cv1/conv/Conv_output_0:
        qtype: asym
        qmethod: layer
        dtype: int8
        min:
        -   0.0
        max:
        -   12.053749084472656
        scale:
        -   0.04726960425283395
        zero_point:
        -   -128
        ori_min:
        -   -10.288480758666992
        ori_max:
        -   12.053749084472656
    /model.6/cv1/act/Relu_output_0:
        qtype: asym
        qmethod: layer
        dtype: int8
        min:
        -   0.0
        max:
        -   12.053749084472656
        scale:
        -   0.04726960425283395
        zero_point:
        -   -128
        ori_min:
        -   0.0
        ori_max:
        -   12.053749084472656
    /model.6/Split_output_0:
        qtype: asym
        qmethod: layer
        dtype: int8
        min:
        -   0.0
        max:
        -   12.053749084472656
        scale:
        -   0.04726960425283395
        zero_point:
        -   -128
        ori_min:
        -   0.0
        ori_max:
        -   12.053749084472656
    /model.6/Split_output_1:
        qtype: asym
        qmethod: layer
        dtype: int8
        min:
        -   0.0
        max:
        -   10.452983856201172
        scale:
        -   0.04099209355373008
        zero_point:
        -   -128
        ori_min:
        -   0.0
        ori_max:
        -   10.452983856201172
    /model.6/m.0/cv1/conv/Conv_output_0:
        qtype: asym
        qmethod: layer
        dtype: int8
        min:
        -   0.0
        max:
        -   10.86056900024414
        scale:
        -   0.04259046666762408
        zero_point:
        -   -128
        ori_min:
        -   -11.740144729614258
        ori_max:
        -   10.86056900024414
    /model.6/m.0/cv1/act/Relu_output_0:
        qtype: asym
        qmethod: layer
        dtype: int8
        min:
        -   0.0
        max:
        -   10.86056900024414
        scale:
        -   0.04259046666762408
        zero_point:
        -   -128
        ori_min:
        -   0.0
        ori_max:
        -   10.86056900024414
    /model.6/m.0/cv2/conv/Conv_output_0:
        qtype: asym
        qmethod: layer
        dtype: int8
        min:
        -   0.0
        max:
        -   11.995397567749023
        scale:
        -   0.04704077477548636
        zero_point:
        -   -128
        ori_min:
        -   -9.68189525604248
        ori_max:
        -   11.995397567749023
    /model.6/m.0/cv2/act/Relu_output_0:
        qtype: asym
        qmethod: layer
        dtype: int8
        min:
        -   0.0
        max:
        -   11.995397567749023
        scale:
        -   0.04704077477548636
        zero_point:
        -   -128
        ori_min:
        -   0.0
        ori_max:
        -   11.995397567749023
    /model.6/m.0/Add_output_0:
        qtype: asym
        qmethod: layer
        dtype: int8
        min:
        -   0.0
        max:
        -   12.605624198913574
        scale:
        -   0.04943382038789637
        zero_point:
        -   -128
        ori_min:
        -   0.0
        ori_max:
        -   12.605624198913574
    /model.6/m.1/cv1/conv/Conv_output_0:
        qtype: asym
        qmethod: layer
        dtype: int8
        min:
        -   0.0
        max:
        -   7.506059646606445
        scale:
        -   0.02943552802590763
        zero_point:
        -   -128
        ori_min:
        -   -9.68642520904541
        ori_max:
        -   7.506059646606445
    /model.6/m.1/cv1/act/Relu_output_0:
        qtype: asym
        qmethod: layer
        dtype: int8
        min:
        -   0.0
        max:
        -   7.506059646606445
        scale:
        -   0.02943552802590763
        zero_point:
        -   -128
        ori_min:
        -   0.0
        ori_max:
        -   7.506059646606445
    /model.6/m.1/cv2/conv/Conv_output_0:
        qtype: asym
        qmethod: layer
        dtype: int8
        min:
        -   0.0
        max:
        -   12.046688079833984
        scale:
        -   0.04724191403856465
        zero_point:
        -   -128
        ori_min:
        -   -12.720699310302734
        ori_max:
        -   12.046688079833984
    /model.6/m.1/cv2/act/Relu_output_0:
        qtype: asym
        qmethod: layer
        dtype: int8
        min:
        -   0.0
        max:
        -   12.046688079833984
        scale:
        -   0.04724191403856465
        zero_point:
        -   -128
        ori_min:
        -   0.0
        ori_max:
        -   12.046688079833984
    /model.6/m.1/Add_output_0:
        qtype: asym
        qmethod: layer
        dtype: int8
        min:
        -   0.0
        max:
        -   18.844417572021484
        scale:
        -   0.07389967675302543
        zero_point:
        -   -128
        ori_min:
        -   0.0
        ori_max:
        -   18.844417572021484
    /model.6/Concat_output_0:
        qtype: asym
        qmethod: layer
        dtype: int8
        min:
        -   0.0
        max:
        -   18.844417572021484
        scale:
        -   0.07389967675302543
        zero_point:
        -   -128
        ori_min:
        -   0.0
        ori_max:
        -   18.844417572021484
    /model.6/cv2/conv/Conv_output_0:
        qtype: asym
        qmethod: layer
        dtype: int8
        min:
        -   0.0
        max:
        -   11.267417907714844
        scale:
        -   0.0441859525792739
        zero_point:
        -   -128
        ori_min:
        -   -9.87732219696045
        ori_max:
        -   11.267417907714844
    /model.6/cv2/act/Relu_output_0:
        qtype: asym
        qmethod: layer
        dtype: int8
        min:
        -   0.0
        max:
        -   11.267417907714844
        scale:
        -   0.0441859525792739
        zero_point:
        -   -128
        ori_min:
        -   0.0
        ori_max:
        -   11.267417907714844
    /model.7/conv/Conv_output_0:
        qtype: asym
        qmethod: layer
        dtype: int8
        min:
        -   0.0
        max:
        -   8.659253120422363
        scale:
        -   0.03395785537420535
        zero_point:
        -   -128
        ori_min:
        -   -8.262784004211426
        ori_max:
        -   8.659253120422363
    /model.7/act/Relu_output_0:
        qtype: asym
        qmethod: layer
        dtype: int8
        min:
        -   0.0
        max:
        -   8.659253120422363
        scale:
        -   0.03395785537420535
        zero_point:
        -   -128
        ori_min:
        -   0.0
        ori_max:
        -   8.659253120422363
    /model.8/cv1/conv/Conv_output_0:
        qtype: asym
        qmethod: layer
        dtype: int8
        min:
        -   0.0
        max:
        -   9.038816452026367
        scale:
        -   0.03544633902755438
        zero_point:
        -   -128
        ori_min:
        -   -9.428017616271973
        ori_max:
        -   9.038816452026367
    /model.8/cv1/act/Relu_output_0:
        qtype: asym
        qmethod: layer
        dtype: int8
        min:
        -   0.0
        max:
        -   9.038816452026367
        scale:
        -   0.03544633902755438
        zero_point:
        -   -128
        ori_min:
        -   0.0
        ori_max:
        -   9.038816452026367
    /model.8/Split_output_0:
        qtype: asym
        qmethod: layer
        dtype: int8
        min:
        -   0.0
        max:
        -   8.971138000488281
        scale:
        -   0.03518093333524816
        zero_point:
        -   -128
        ori_min:
        -   0.0
        ori_max:
        -   8.971138000488281
    /model.8/Split_output_1:
        qtype: asym
        qmethod: layer
        dtype: int8
        min:
        -   0.0
        max:
        -   9.038816452026367
        scale:
        -   0.03544633902755438
        zero_point:
        -   -128
        ori_min:
        -   0.0
        ori_max:
        -   9.038816452026367
    /model.8/m.0/cv1/conv/Conv_output_0:
        qtype: asym
        qmethod: layer
        dtype: int8
        min:
        -   0.0
        max:
        -   6.946235179901123
        scale:
        -   0.027240137960396562
        zero_point:
        -   -128
        ori_min:
        -   -7.538171291351318
        ori_max:
        -   6.946235179901123
    /model.8/m.0/cv1/act/Relu_output_0:
        qtype: asym
        qmethod: layer
        dtype: int8
        min:
        -   0.0
        max:
        -   6.946235179901123
        scale:
        -   0.027240137960396562
        zero_point:
        -   -128
        ori_min:
        -   0.0
        ori_max:
        -   6.946235179901123
    /model.8/m.0/cv2/conv/Conv_output_0:
        qtype: asym
        qmethod: layer
        dtype: int8
        min:
        -   0.0
        max:
        -   8.180055618286133
        scale:
        -   0.03207864948347503
        zero_point:
        -   -128
        ori_min:
        -   -6.270167827606201
        ori_max:
        -   8.180055618286133
    /model.8/m.0/cv2/act/Relu_output_0:
        qtype: asym
        qmethod: layer
        dtype: int8
        min:
        -   0.0
        max:
        -   8.180055618286133
        scale:
        -   0.03207864948347503
        zero_point:
        -   -128
        ori_min:
        -   0.0
        ori_max:
        -   8.180055618286133
    /model.8/m.0/Add_output_0:
        qtype: asym
        qmethod: layer
        dtype: int8
        min:
        -   0.0
        max:
        -   11.158480644226074
        scale:
        -   0.04375874762441598
        zero_point:
        -   -128
        ori_min:
        -   0.0
        ori_max:
        -   11.158480644226074
    /model.8/Concat_output_0:
        qtype: asym
        qmethod: layer
        dtype: int8
        min:
        -   0.0
        max:
        -   11.158480644226074
        scale:
        -   0.04375874762441598
        zero_point:
        -   -128
        ori_min:
        -   0.0
        ori_max:
        -   11.158480644226074
    /model.8/cv2/conv/Conv_output_0:
        qtype: asym
        qmethod: layer
        dtype: int8
        min:
        -   0.0
        max:
        -   8.012375831604004
        scale:
        -   0.031421081692564724
        zero_point:
        -   -128
        ori_min:
        -   -7.601076126098633
        ori_max:
        -   8.012375831604004
    /model.8/cv2/act/Relu_output_0:
        qtype: asym
        qmethod: layer
        dtype: int8
        min:
        -   0.0
        max:
        -   8.012375831604004
        scale:
        -   0.031421081692564724
        zero_point:
        -   -128
        ori_min:
        -   0.0
        ori_max:
        -   8.012375831604004
    /model.9/cv1/conv/Conv_output_0:
        qtype: asym
        qmethod: layer
        dtype: int8
        min:
        -   0.0
        max:
        -   8.044143676757812
        scale:
        -   0.03154566147748162
        zero_point:
        -   -128
        ori_min:
        -   -5.448835372924805
        ori_max:
        -   8.044143676757812
    /model.9/cv1/act/Relu_output_0:
        qtype: asym
        qmethod: layer
        dtype: int8
        min:
        -   0.0
        max:
        -   8.044143676757812
        scale:
        -   0.03154566147748162
        zero_point:
        -   -128
        ori_min:
        -   0.0
        ori_max:
        -   8.044143676757812
    /model.9/m/MaxPool_output_0:
        qtype: asym
        qmethod: layer
        dtype: int8
        min:
        -   0.0
        max:
        -   8.044143676757812
        scale:
        -   0.03154566147748162
        zero_point:
        -   -128
        ori_min:
        -   0.0
        ori_max:
        -   8.044143676757812
    /model.9/m_1/MaxPool_output_0:
        qtype: asym
        qmethod: layer
        dtype: int8
        min:
        -   0.0
        max:
        -   8.044143676757812
        scale:
        -   0.03154566147748162
        zero_point:
        -   -128
        ori_min:
        -   0.0
        ori_max:
        -   8.044143676757812
    /model.9/m_2/MaxPool_output_0:
        qtype: asym
        qmethod: layer
        dtype: int8
        min:
        -   0.0
        max:
        -   8.044143676757812
        scale:
        -   0.03154566147748162
        zero_point:
        -   -128
        ori_min:
        -   0.0
        ori_max:
        -   8.044143676757812
    /model.9/Concat_output_0:
        qtype: asym
        qmethod: layer
        dtype: int8
        min:
        -   0.0
        max:
        -   8.044143676757812
        scale:
        -   0.03154566147748162
        zero_point:
        -   -128
        ori_min:
        -   0.0
        ori_max:
        -   8.044143676757812
    /model.9/cv2/conv/Conv_output_0:
        qtype: asym
        qmethod: layer
        dtype: int8
        min:
        -   0.0
        max:
        -   6.136667728424072
        scale:
        -   0.024065363640878714
        zero_point:
        -   -128
        ori_min:
        -   -4.808276176452637
        ori_max:
        -   6.136667728424072
    /model.9/cv2/act/Relu_output_0:
        qtype: asym
        qmethod: layer
        dtype: int8
        min:
        -   0.0
        max:
        -   6.136667728424072
        scale:
        -   0.024065363640878714
        zero_point:
        -   -128
        ori_min:
        -   0.0
        ori_max:
        -   6.136667728424072
    /model.10/Upsample_output_0:
        qtype: asym
        qmethod: layer
        dtype: int8
        min:
        -   0.0
        max:
        -   6.136667728424072
        scale:
        -   0.024065363640878714
        zero_point:
        -   -128
        ori_min:
        -   0.0
        ori_max:
        -   6.136667728424072
    /model.11/Concat_output_0:
        qtype: asym
        qmethod: layer
        dtype: int8
        min:
        -   0.0
        max:
        -   11.267417907714844
        scale:
        -   0.0441859525792739
        zero_point:
        -   -128
        ori_min:
        -   0.0
        ori_max:
        -   11.267417907714844
    /model.12/cv1/conv/Conv_output_0:
        qtype: asym
        qmethod: layer
        dtype: int8
        min:
        -   0.0
        max:
        -   9.961673736572266
        scale:
        -   0.03906538720224418
        zero_point:
        -   -128
        ori_min:
        -   -8.886263847351074
        ori_max:
        -   9.961673736572266
    /model.12/cv1/act/Relu_output_0:
        qtype: asym
        qmethod: layer
        dtype: int8
        min:
        -   0.0
        max:
        -   9.961673736572266
        scale:
        -   0.03906538720224418
        zero_point:
        -   -128
        ori_min:
        -   0.0
        ori_max:
        -   9.961673736572266
    /model.12/Split_output_0:
        qtype: asym
        qmethod: layer
        dtype: int8
        min:
        -   0.0
        max:
        -   7.294422626495361
        scale:
        -   0.02860557892743279
        zero_point:
        -   -128
        ori_min:
        -   0.0
        ori_max:
        -   7.294422626495361
    /model.12/Split_output_1:
        qtype: asym
        qmethod: layer
        dtype: int8
        min:
        -   0.0
        max:
        -   9.961673736572266
        scale:
        -   0.03906538720224418
        zero_point:
        -   -128
        ori_min:
        -   0.0
        ori_max:
        -   9.961673736572266
    /model.12/m.0/cv1/conv/Conv_output_0:
        qtype: asym
        qmethod: layer
        dtype: int8
        min:
        -   0.0
        max:
        -   8.96900749206543
        scale:
        -   0.03517257840025659
        zero_point:
        -   -128
        ori_min:
        -   -9.244603157043457
        ori_max:
        -   8.96900749206543
    /model.12/m.0/cv1/act/Relu_output_0:
        qtype: asym
        qmethod: layer
        dtype: int8
        min:
        -   0.0
        max:
        -   8.96900749206543
        scale:
        -   0.03517257840025659
        zero_point:
        -   -128
        ori_min:
        -   0.0
        ori_max:
        -   8.96900749206543
    /model.12/m.0/cv2/conv/Conv_output_0:
        qtype: asym
        qmethod: layer
        dtype: int8
        min:
        -   0.0
        max:
        -   13.113283157348633
        scale:
        -   0.05142463983273974
        zero_point:
        -   -128
        ori_min:
        -   -8.310371398925781
        ori_max:
        -   13.113283157348633
    /model.12/m.0/cv2/act/Relu_output_0:
        qtype: asym
        qmethod: layer
        dtype: int8
        min:
        -   0.0
        max:
        -   13.113283157348633
        scale:
        -   0.05142463983273974
        zero_point:
        -   -128
        ori_min:
        -   0.0
        ori_max:
        -   13.113283157348633
    /model.12/Concat_output_0:
        qtype: asym
        qmethod: layer
        dtype: int8
        min:
        -   0.0
        max:
        -   13.113283157348633
        scale:
        -   0.05142463983273974
        zero_point:
        -   -128
        ori_min:
        -   0.0
        ori_max:
        -   13.113283157348633
    /model.12/cv2/conv/Conv_output_0:
        qtype: asym
        qmethod: layer
        dtype: int8
        min:
        -   0.0
        max:
        -   10.246321678161621
        scale:
        -   0.0401816536398495
        zero_point:
        -   -128
        ori_min:
        -   -9.580527305603027
        ori_max:
        -   10.246321678161621
    /model.12/cv2/act/Relu_output_0:
        qtype: asym
        qmethod: layer
        dtype: int8
        min:
        -   0.0
        max:
        -   10.246321678161621
        scale:
        -   0.0401816536398495
        zero_point:
        -   -128
        ori_min:
        -   0.0
        ori_max:
        -   10.246321678161621
    /model.13/Upsample_output_0:
        qtype: asym
        qmethod: layer
        dtype: int8
        min:
        -   0.0
        max:
        -   10.246321678161621
        scale:
        -   0.0401816536398495
        zero_point:
        -   -128
        ori_min:
        -   0.0
        ori_max:
        -   10.246321678161621
    /model.14/Concat_output_0:
        qtype: asym
        qmethod: layer
        dtype: int8
        min:
        -   0.0
        max:
        -   15.785252571105957
        scale:
        -   0.061902951259239045
        zero_point:
        -   -128
        ori_min:
        -   0.0
        ori_max:
        -   15.785252571105957
    /model.15/cv1/conv/Conv_output_0:
        qtype: asym
        qmethod: layer
        dtype: int8
        min:
        -   0.0
        max:
        -   13.336498260498047
        scale:
        -   0.052299993178423716
        zero_point:
        -   -128
        ori_min:
        -   -13.934249877929688
        ori_max:
        -   13.336498260498047
    /model.15/cv1/act/Relu_output_0:
        qtype: asym
        qmethod: layer
        dtype: int8
        min:
        -   0.0
        max:
        -   13.336498260498047
        scale:
        -   0.052299993178423716
        zero_point:
        -   -128
        ori_min:
        -   0.0
        ori_max:
        -   13.336498260498047
    /model.15/Split_output_0:
        qtype: asym
        qmethod: layer
        dtype: int8
        min:
        -   0.0
        max:
        -   11.582401275634766
        scale:
        -   0.04542118147307751
        zero_point:
        -   -128
        ori_min:
        -   0.0
        ori_max:
        -   11.582401275634766
    /model.15/Split_output_1:
        qtype: asym
        qmethod: layer
        dtype: int8
        min:
        -   0.0
        max:
        -   13.336498260498047
        scale:
        -   0.052299993178423716
        zero_point:
        -   -128
        ori_min:
        -   0.0
        ori_max:
        -   13.336498260498047
    /model.15/m.0/cv1/conv/Conv_output_0:
        qtype: asym
        qmethod: layer
        dtype: int8
        min:
        -   0.0
        max:
        -   17.854848861694336
        scale:
        -   0.07001901514389935
        zero_point:
        -   -128
        ori_min:
        -   -17.434125900268555
        ori_max:
        -   17.854848861694336
    /model.15/m.0/cv1/act/Relu_output_0:
        qtype: asym
        qmethod: layer
        dtype: int8
        min:
        -   0.0
        max:
        -   17.854848861694336
        scale:
        -   0.07001901514389935
        zero_point:
        -   -128
        ori_min:
        -   0.0
        ori_max:
        -   17.854848861694336
    /model.15/m.0/cv2/conv/Conv_output_0:
        qtype: asym
        qmethod: layer
        dtype: int8
        min:
        -   0.0
        max:
        -   17.2983455657959
        scale:
        -   0.06783664927763097
        zero_point:
        -   -128
        ori_min:
        -   -16.598905563354492
        ori_max:
        -   17.2983455657959
    /model.15/m.0/cv2/act/Relu_output_0:
        qtype: asym
        qmethod: layer
        dtype: int8
        min:
        -   0.0
        max:
        -   17.2983455657959
        scale:
        -   0.06783664927763097
        zero_point:
        -   -128
        ori_min:
        -   0.0
        ori_max:
        -   17.2983455657959
    /model.15/Concat_output_0:
        qtype: asym
        qmethod: layer
        dtype: int8
        min:
        -   0.0
        max:
        -   17.2983455657959
        scale:
        -   0.06783664927763097
        zero_point:
        -   -128
        ori_min:
        -   0.0
        ori_max:
        -   17.2983455657959
    /model.15/cv2/conv/Conv_output_0:
        qtype: asym
        qmethod: layer
        dtype: int8
        min:
        -   0.0
        max:
        -   21.086750030517578
        scale:
        -   0.08269313737457874
        zero_point:
        -   -128
        ori_min:
        -   -13.957381248474121
        ori_max:
        -   21.086750030517578
    /model.15/cv2/act/Relu_output_0:
        qtype: asym
        qmethod: layer
        dtype: int8
        min:
        -   0.0
        max:
        -   21.086750030517578
        scale:
        -   0.08269313737457874
        zero_point:
        -   -128
        ori_min:
        -   0.0
        ori_max:
        -   21.086750030517578
    /model.16/conv/Conv_output_0:
        qtype: asym
        qmethod: layer
        dtype: int8
        min:
        -   0.0
        max:
        -   16.254981994628906
        scale:
        -   0.06374502742991728
        zero_point:
        -   -128
        ori_min:
        -   -14.110662460327148
        ori_max:
        -   16.254981994628906
    /model.16/act/Relu_output_0:
        qtype: asym
        qmethod: layer
        dtype: int8
        min:
        -   0.0
        max:
        -   16.254981994628906
        scale:
        -   0.06374502742991728
        zero_point:
        -   -128
        ori_min:
        -   0.0
        ori_max:
        -   16.254981994628906
    /model.17/Concat_output_0:
        qtype: asym
        qmethod: layer
        dtype: int8
        min:
        -   0.0
        max:
        -   16.254981994628906
        scale:
        -   0.06374502742991728
        zero_point:
        -   -128
        ori_min:
        -   0.0
        ori_max:
        -   16.254981994628906
    /model.18/cv1/conv/Conv_output_0:
        qtype: asym
        qmethod: layer
        dtype: int8
        min:
        -   0.0
        max:
        -   19.980756759643555
        scale:
        -   0.07835590886134727
        zero_point:
        -   -128
        ori_min:
        -   -15.145918846130371
        ori_max:
        -   19.980756759643555
    /model.18/cv1/act/Relu_output_0:
        qtype: asym
        qmethod: layer
        dtype: int8
        min:
        -   0.0
        max:
        -   19.980756759643555
        scale:
        -   0.07835590886134727
        zero_point:
        -   -128
        ori_min:
        -   0.0
        ori_max:
        -   19.980756759643555
    /model.18/Split_output_0:
        qtype: asym
        qmethod: layer
        dtype: int8
        min:
        -   0.0
        max:
        -   19.980756759643555
        scale:
        -   0.07835590886134727
        zero_point:
        -   -128
        ori_min:
        -   0.0
        ori_max:
        -   19.980756759643555
    /model.18/Split_output_1:
        qtype: asym
        qmethod: layer
        dtype: int8
        min:
        -   0.0
        max:
        -   13.250320434570312
        scale:
        -   0.05196204091988358
        zero_point:
        -   -128
        ori_min:
        -   0.0
        ori_max:
        -   13.250320434570312
    /model.18/m.0/cv1/conv/Conv_output_0:
        qtype: asym
        qmethod: layer
        dtype: int8
        min:
        -   0.0
        max:
        -   12.838960647583008
        scale:
        -   0.05034886528463925
        zero_point:
        -   -128
        ori_min:
        -   -16.552417755126953
        ori_max:
        -   12.838960647583008
    /model.18/m.0/cv1/act/Relu_output_0:
        qtype: asym
        qmethod: layer
        dtype: int8
        min:
        -   0.0
        max:
        -   12.838960647583008
        scale:
        -   0.05034886528463925
        zero_point:
        -   -128
        ori_min:
        -   0.0
        ori_max:
        -   12.838960647583008
    /model.18/m.0/cv2/conv/Conv_output_0:
        qtype: asym
        qmethod: layer
        dtype: int8
        min:
        -   0.0
        max:
        -   16.2637939453125
        scale:
        -   0.06377958409926471
        zero_point:
        -   -128
        ori_min:
        -   -12.510467529296875
        ori_max:
        -   16.2637939453125
    /model.18/m.0/cv2/act/Relu_output_0:
        qtype: asym
        qmethod: layer
        dtype: int8
        min:
        -   0.0
        max:
        -   16.2637939453125
        scale:
        -   0.06377958409926471
        zero_point:
        -   -128
        ori_min:
        -   0.0
        ori_max:
        -   16.2637939453125
    /model.18/Concat_output_0:
        qtype: asym
        qmethod: layer
        dtype: int8
        min:
        -   0.0
        max:
        -   19.980756759643555
        scale:
        -   0.07835590886134727
        zero_point:
        -   -128
        ori_min:
        -   0.0
        ori_max:
        -   19.980756759643555
    /model.18/cv2/conv/Conv_output_0:
        qtype: asym
        qmethod: layer
        dtype: int8
        min:
        -   0.0
        max:
        -   16.77692413330078
        scale:
        -   0.06579185934627757
        zero_point:
        -   -128
        ori_min:
        -   -14.918546676635742
        ori_max:
        -   16.77692413330078
    /model.18/cv2/act/Relu_output_0:
        qtype: asym
        qmethod: layer
        dtype: int8
        min:
        -   0.0
        max:
        -   16.77692413330078
        scale:
        -   0.06579185934627757
        zero_point:
        -   -128
        ori_min:
        -   0.0
        ori_max:
        -   16.77692413330078
    /model.19/conv/Conv_output_0:
        qtype: asym
        qmethod: layer
        dtype: int8
        min:
        -   0.0
        max:
        -   9.125313758850098
        scale:
        -   0.03578554415235333
        zero_point:
        -   -128
        ori_min:
        -   -9.258864402770996
        ori_max:
        -   9.125313758850098
    /model.19/act/Relu_output_0:
        qtype: asym
        qmethod: layer
        dtype: int8
        min:
        -   0.0
        max:
        -   9.125313758850098
        scale:
        -   0.03578554415235333
        zero_point:
        -   -128
        ori_min:
        -   0.0
        ori_max:
        -   9.125313758850098
    /model.20/Concat_output_0:
        qtype: asym
        qmethod: layer
        dtype: int8
        min:
        -   0.0
        max:
        -   9.125313758850098
        scale:
        -   0.03578554415235333
        zero_point:
        -   -128
        ori_min:
        -   0.0
        ori_max:
        -   9.125313758850098
    /model.21/cv1/conv/Conv_output_0:
        qtype: asym
        qmethod: layer
        dtype: int8
        min:
        -   0.0
        max:
        -   10.373647689819336
        scale:
        -   0.04068097133262485
        zero_point:
        -   -128
        ori_min:
        -   -8.500164031982422
        ori_max:
        -   10.373647689819336
    /model.21/cv1/act/Relu_output_0:
        qtype: asym
        qmethod: layer
        dtype: int8
        min:
        -   0.0
        max:
        -   10.373647689819336
        scale:
        -   0.04068097133262485
        zero_point:
        -   -128
        ori_min:
        -   0.0
        ori_max:
        -   10.373647689819336
    /model.21/Split_output_0:
        qtype: asym
        qmethod: layer
        dtype: int8
        min:
        -   0.0
        max:
        -   10.373647689819336
        scale:
        -   0.04068097133262485
        zero_point:
        -   -128
        ori_min:
        -   0.0
        ori_max:
        -   10.373647689819336
    /model.21/Split_output_1:
        qtype: asym
        qmethod: layer
        dtype: int8
        min:
        -   0.0
        max:
        -   8.373836517333984
        scale:
        -   0.03283857457778033
        zero_point:
        -   -128
        ori_min:
        -   0.0
        ori_max:
        -   8.373836517333984
    /model.21/m.0/cv1/conv/Conv_output_0:
        qtype: asym
        qmethod: layer
        dtype: int8
        min:
        -   0.0
        max:
        -   8.447863578796387
        scale:
        -   0.033128876779593676
        zero_point:
        -   -128
        ori_min:
        -   -7.502071380615234
        ori_max:
        -   8.447863578796387
    /model.21/m.0/cv1/act/Relu_output_0:
        qtype: asym
        qmethod: layer
        dtype: int8
        min:
        -   0.0
        max:
        -   8.447863578796387
        scale:
        -   0.033128876779593676
        zero_point:
        -   -128
        ori_min:
        -   0.0
        ori_max:
        -   8.447863578796387
    /model.21/m.0/cv2/conv/Conv_output_0:
        qtype: asym
        qmethod: layer
        dtype: int8
        min:
        -   0.0
        max:
        -   6.865025997161865
        scale:
        -   0.026921670577105355
        zero_point:
        -   -128
        ori_min:
        -   -5.470676422119141
        ori_max:
        -   6.865025997161865
    /model.21/m.0/cv2/act/Relu_output_0:
        qtype: asym
        qmethod: layer
        dtype: int8
        min:
        -   0.0
        max:
        -   6.865025997161865
        scale:
        -   0.026921670577105355
        zero_point:
        -   -128
        ori_min:
        -   0.0
        ori_max:
        -   6.865025997161865
    /model.21/Concat_output_0:
        qtype: asym
        qmethod: layer
        dtype: int8
        min:
        -   0.0
        max:
        -   10.373647689819336
        scale:
        -   0.04068097133262485
        zero_point:
        -   -128
        ori_min:
        -   0.0
        ori_max:
        -   10.373647689819336
    /model.21/cv2/conv/Conv_output_0:
        qtype: asym
        qmethod: layer
        dtype: int8
        min:
        -   0.0
        max:
        -   10.185663223266602
        scale:
        -   0.03994377734614354
        zero_point:
        -   -128
        ori_min:
        -   -9.812880516052246
        ori_max:
        -   10.185663223266602
    /model.21/cv2/act/Relu_output_0:
        qtype: asym
        qmethod: layer
        dtype: int8
        min:
        -   0.0
        max:
        -   10.185663223266602
        scale:
        -   0.03994377734614354
        zero_point:
        -   -128
        ori_min:
        -   0.0
        ori_max:
        -   10.185663223266602
    /model.22/cv2.2/cv2.2.0/conv/Conv_output_0:
        qtype: asym
        qmethod: layer
        dtype: int8
        min:
        -   0.0
        max:
        -   6.714273929595947
        scale:
        -   0.02633048599841548
        zero_point:
        -   -128
        ori_min:
        -   -5.205434799194336
        ori_max:
        -   6.714273929595947
    /model.22/cv2.2/cv2.2.0/act/Relu_output_0:
        qtype: asym
        qmethod: layer
        dtype: int8
        min:
        -   0.0
        max:
        -   6.714273929595947
        scale:
        -   0.02633048599841548
        zero_point:
        -   -128
        ori_min:
        -   0.0
        ori_max:
        -   6.714273929595947
    /model.22/cv2.2/cv2.2.1/conv/Conv_output_0:
        qtype: asym
        qmethod: layer
        dtype: int8
        min:
        -   0.0
        max:
        -   7.456733703613281
        scale:
        -   0.029242092955346202
        zero_point:
        -   -128
        ori_min:
        -   -4.737884044647217
        ori_max:
        -   7.456733703613281
    /model.22/cv2.2/cv2.2.1/act/Relu_output_0:
        qtype: asym
        qmethod: layer
        dtype: int8
        min:
        -   0.0
        max:
        -   7.456733703613281
        scale:
        -   0.029242092955346202
        zero_point:
        -   -128
        ori_min:
        -   0.0
        ori_max:
        -   7.456733703613281
    '314':
        qtype: asym
        qmethod: layer
        dtype: float32
        min:
        -   -3.48126220703125
        max:
        -   8.088661193847656
        scale: []
        zero_point: []
        ori_min:
        -   -3.48126220703125
        ori_max:
        -   8.088661193847656
    /model.22/cv3.2/cv3.2.0/cv3.2.0.0/conv/Conv_output_0:
        qtype: asym
        qmethod: layer
        dtype: int8
        min:
        -   0.0
        max:
        -   10.121725082397461
        scale:
        -   0.03969303953881357
        zero_point:
        -   -128
        ori_min:
        -   -9.983368873596191
        ori_max:
        -   10.121725082397461
    /model.22/cv3.2/cv3.2.0/cv3.2.0.0/act/Relu_output_0:
        qtype: asym
        qmethod: layer
        dtype: int8
        min:
        -   0.0
        max:
        -   10.121725082397461
        scale:
        -   0.03969303953881357
        zero_point:
        -   -128
        ori_min:
        -   0.0
        ori_max:
        -   10.121725082397461
    /model.22/cv3.2/cv3.2.0/cv3.2.0.1/conv/Conv_output_0:
        qtype: asym
        qmethod: layer
        dtype: int8
        min:
        -   0.0
        max:
        -   8.212148666381836
        scale:
        -   0.032204504574046416
        zero_point:
        -   -128
        ori_min:
        -   -5.160243034362793
        ori_max:
        -   8.212148666381836
    /model.22/cv3.2/cv3.2.0/cv3.2.0.1/act/Relu_output_0:
        qtype: asym
        qmethod: layer
        dtype: int8
        min:
        -   0.0
        max:
        -   8.212148666381836
        scale:
        -   0.032204504574046416
        zero_point:
        -   -128
        ori_min:
        -   0.0
        ori_max:
        -   8.212148666381836
    /model.22/cv3.2/cv3.2.1/cv3.2.1.0/conv/Conv_output_0:
        qtype: asym
        qmethod: layer
        dtype: int8
        min:
        -   0.0
        max:
        -   11.950217247009277
        scale:
        -   0.0468635970470952
        zero_point:
        -   -128
        ori_min:
        -   -7.420191764831543
        ori_max:
        -   11.950217247009277
    /model.22/cv3.2/cv3.2.1/cv3.2.1.0/act/Relu_output_0:
        qtype: asym
        qmethod: layer
        dtype: int8
        min:
        -   0.0
        max:
        -   11.950217247009277
        scale:
        -   0.0468635970470952
        zero_point:
        -   -128
        ori_min:
        -   0.0
        ori_max:
        -   11.950217247009277
    /model.22/cv3.2/cv3.2.1/cv3.2.1.1/conv/Conv_output_0:
        qtype: asym
        qmethod: layer
        dtype: int8
        min:
        -   0.0
        max:
        -   9.22808837890625
        scale:
        -   0.03618858187806372
        zero_point:
        -   -128
        ori_min:
        -   -5.739448547363281
        ori_max:
        -   9.22808837890625
    /model.22/cv3.2/cv3.2.1/cv3.2.1.1/act/Relu_output_0:
        qtype: asym
        qmethod: layer
        dtype: int8
        min:
        -   0.0
        max:
        -   9.22808837890625
        scale:
        -   0.03618858187806372
        zero_point:
        -   -128
        ori_min:
        -   0.0
        ori_max:
        -   9.22808837890625
    /model.22/cv3.2/cv3.2.2/Conv_output_0:
        qtype: asym
        qmethod: layer
        dtype: int8
        min:
        -   -7.0
        max:
        -   0.0
        scale:
        -   0.027450980392156862
        zero_point:
        -   127
        ori_min:
        -   -27.11724090576172
        ori_max:
        -   -6.164239883422852
    onnx::ReduceSum_324:
        qtype: asym
        qmethod: layer
        dtype: float32
        min:
        -   0.0
        max:
        -   0.0020988881587982178
        scale: []
        zero_point: []
        ori_min:
        -   0.0
        ori_max:
        -   0.0020988881587982178
    '326':
        qtype: asym
        qmethod: layer
        dtype: float32
        min:
        -   0.0
        max:
        -   0.0020988881587982178
        scale: []
        zero_point: []
        ori_min:
        -   0.0
        ori_max:
        -   0.0020988881587982178
    /model.22/cv2.1/cv2.1.0/conv/Conv_output_0:
        qtype: asym
        qmethod: layer
        dtype: int8
        min:
        -   0.0
        max:
        -   11.162738800048828
        scale:
        -   0.043775446274701285
        zero_point:
        -   -128
        ori_min:
        -   -12.427960395812988
        ori_max:
        -   11.162738800048828
    /model.22/cv2.1/cv2.1.0/act/Relu_output_0:
        qtype: asym
        qmethod: layer
        dtype: int8
        min:
        -   0.0
        max:
        -   11.162738800048828
        scale:
        -   0.043775446274701285
        zero_point:
        -   -128
        ori_min:
        -   0.0
        ori_max:
        -   11.162738800048828
    /model.22/cv2.1/cv2.1.1/conv/Conv_output_0:
        qtype: asym
        qmethod: layer
        dtype: int8
        min:
        -   0.0
        max:
        -   8.769770622253418
        scale:
        -   0.034391257342170266
        zero_point:
        -   -128
        ori_min:
        -   -9.841367721557617
        ori_max:
        -   8.769770622253418
    /model.22/cv2.1/cv2.1.1/act/Relu_output_0:
        qtype: asym
        qmethod: layer
        dtype: int8
        min:
        -   0.0
        max:
        -   8.769770622253418
        scale:
        -   0.034391257342170266
        zero_point:
        -   -128
        ori_min:
        -   0.0
        ori_max:
        -   8.769770622253418
    '297':
        qtype: asym
        qmethod: layer
        dtype: float32
        min:
        -   -7.646329879760742
        max:
        -   13.993590354919434
        scale: []
        zero_point: []
        ori_min:
        -   -7.646329879760742
        ori_max:
        -   13.993590354919434
    /model.22/cv3.1/cv3.1.0/cv3.1.0.0/conv/Conv_output_0:
        qtype: asym
        qmethod: layer
        dtype: int8
        min:
        -   0.0
        max:
        -   24.70902442932129
        scale:
        -   0.09689813501694623
        zero_point:
        -   -128
        ori_min:
        -   -16.767953872680664
        ori_max:
        -   24.70902442932129
    /model.22/cv3.1/cv3.1.0/cv3.1.0.0/act/Relu_output_0:
        qtype: asym
        qmethod: layer
        dtype: int8
        min:
        -   0.0
        max:
        -   24.70902442932129
        scale:
        -   0.09689813501694623
        zero_point:
        -   -128
        ori_min:
        -   0.0
        ori_max:
        -   24.70902442932129
    /model.22/cv3.1/cv3.1.0/cv3.1.0.1/conv/Conv_output_0:
        qtype: asym
        qmethod: layer
        dtype: int8
        min:
        -   0.0
        max:
        -   16.39206314086914
        scale:
        -   0.064282600552428
        zero_point:
        -   -128
        ori_min:
        -   -11.139642715454102
        ori_max:
        -   16.39206314086914
    /model.22/cv3.1/cv3.1.0/cv3.1.0.1/act/Relu_output_0:
        qtype: asym
        qmethod: layer
        dtype: int8
        min:
        -   0.0
        max:
        -   16.39206314086914
        scale:
        -   0.064282600552428
        zero_point:
        -   -128
        ori_min:
        -   0.0
        ori_max:
        -   16.39206314086914
    /model.22/cv3.1/cv3.1.1/cv3.1.1.0/conv/Conv_output_0:
        qtype: asym
        qmethod: layer
        dtype: int8
        min:
        -   0.0
        max:
        -   22.323637008666992
        scale:
        -   0.08754367454379212
        zero_point:
        -   -128
        ori_min:
        -   -19.817506790161133
        ori_max:
        -   22.323637008666992
    /model.22/cv3.1/cv3.1.1/cv3.1.1.0/act/Relu_output_0:
        qtype: asym
        qmethod: layer
        dtype: int8
        min:
        -   0.0
        max:
        -   22.323637008666992
        scale:
        -   0.08754367454379212
        zero_point:
        -   -128
        ori_min:
        -   0.0
        ori_max:
        -   22.323637008666992
    /model.22/cv3.1/cv3.1.1/cv3.1.1.1/conv/Conv_output_0:
        qtype: asym
        qmethod: layer
        dtype: int8
        min:
        -   0.0
        max:
        -   15.180803298950195
        scale:
        -   0.05953256195666743
        zero_point:
        -   -128
        ori_min:
        -   -9.555828094482422
        ori_max:
        -   15.180803298950195
    /model.22/cv3.1/cv3.1.1/cv3.1.1.1/act/Relu_output_0:
        qtype: asym
        qmethod: layer
        dtype: int8
        min:
        -   0.0
        max:
        -   15.180803298950195
        scale:
        -   0.05953256195666743
        zero_point:
        -   -128
        ori_min:
        -   0.0
        ori_max:
        -   15.180803298950195
    /model.22/cv3.1/cv3.1.2/Conv_output_0:
        qtype: asym
        qmethod: layer
        dtype: int8
        min:
        -   -7.0
        max:
        -   1.8238353729248047
        scale:
        -   0.034603275972254134
        zero_point:
        -   74
        ori_min:
        -   -41.219451904296875
        ori_max:
        -   1.8238353729248047
    onnx::ReduceSum_307:
        qtype: asym
        qmethod: layer
        dtype: float32
        min:
        -   0.0
        max:
        -   0.8610256910324097
        scale: []
        zero_point: []
        ori_min:
        -   0.0
        ori_max:
        -   0.8610256910324097
    '309':
        qtype: asym
        qmethod: layer
        dtype: float32
        min:
        -   0.0
        max:
        -   0.8610256910324097
        scale: []
        zero_point: []
        ori_min:
        -   0.0
        ori_max:
        -   0.8610256910324097
    /model.22/cv2.0/cv2.0.0/conv/Conv_output_0:
        qtype: asym
        qmethod: layer
        dtype: int8
        min:
        -   0.0
        max:
        -   14.787538528442383
        scale:
        -   0.057990347170362284
        zero_point:
        -   -128
        ori_min:
        -   -20.417558670043945
        ori_max:
        -   14.787538528442383
    /model.22/cv2.0/cv2.0.0/act/Relu_output_0:
        qtype: asym
        qmethod: layer
        dtype: int8
        min:
        -   0.0
        max:
        -   14.787538528442383
        scale:
        -   0.057990347170362284
        zero_point:
        -   -128
        ori_min:
        -   0.0
        ori_max:
        -   14.787538528442383
    /model.22/cv2.0/cv2.0.1/conv/Conv_output_0:
        qtype: asym
        qmethod: layer
        dtype: int8
        min:
        -   0.0
        max:
        -   12.740062713623047
        scale:
        -   0.049961030249502145
        zero_point:
        -   -128
        ori_min:
        -   -18.672021865844727
        ori_max:
        -   12.740062713623047
    /model.22/cv2.0/cv2.0.1/act/Relu_output_0:
        qtype: asym
        qmethod: layer
        dtype: int8
        min:
        -   0.0
        max:
        -   12.740062713623047
        scale:
        -   0.049961030249502145
        zero_point:
        -   -128
        ori_min:
        -   0.0
        ori_max:
        -   12.740062713623047
    '280':
        qtype: asym
        qmethod: layer
        dtype: float32
        min:
        -   -11.170201301574707
        max:
        -   15.608485221862793
        scale: []
        zero_point: []
        ori_min:
        -   -11.170201301574707
        ori_max:
        -   15.608485221862793
    /model.22/cv3.0/cv3.0.0/cv3.0.0.0/conv/Conv_output_0:
        qtype: asym
        qmethod: layer
        dtype: int8
        min:
        -   0.0
        max:
        -   28.861003875732422
        scale:
        -   0.11318040735581342
        zero_point:
        -   -128
        ori_min:
        -   -19.995677947998047
        ori_max:
        -   28.861003875732422
    /model.22/cv3.0/cv3.0.0/cv3.0.0.0/act/Relu_output_0:
        qtype: asym
        qmethod: layer
        dtype: int8
        min:
        -   0.0
        max:
        -   28.861003875732422
        scale:
        -   0.11318040735581342
        zero_point:
        -   -128
        ori_min:
        -   0.0
        ori_max:
        -   28.861003875732422
    /model.22/cv3.0/cv3.0.0/cv3.0.0.1/conv/Conv_output_0:
        qtype: asym
        qmethod: layer
        dtype: int8
        min:
        -   0.0
        max:
        -   20.729415893554688
        scale:
        -   0.0812918270335478
        zero_point:
        -   -128
        ori_min:
        -   -18.850902557373047
        ori_max:
        -   20.729415893554688
    /model.22/cv3.0/cv3.0.0/cv3.0.0.1/act/Relu_output_0:
        qtype: asym
        qmethod: layer
        dtype: int8
        min:
        -   0.0
        max:
        -   20.729415893554688
        scale:
        -   0.0812918270335478
        zero_point:
        -   -128
        ori_min:
        -   0.0
        ori_max:
        -   20.729415893554688
    /model.22/cv3.0/cv3.0.1/cv3.0.1.0/conv/Conv_output_0:
        qtype: asym
        qmethod: layer
        dtype: int8
        min:
        -   0.0
        max:
        -   37.55170822143555
        scale:
        -   0.1472616008683747
        zero_point:
        -   -128
        ori_min:
        -   -35.91753387451172
        ori_max:
        -   37.55170822143555
    /model.22/cv3.0/cv3.0.1/cv3.0.1.0/act/Relu_output_0:
        qtype: asym
        qmethod: layer
        dtype: int8
        min:
        -   0.0
        max:
        -   37.55170822143555
        scale:
        -   0.1472616008683747
        zero_point:
        -   -128
        ori_min:
        -   0.0
        ori_max:
        -   37.55170822143555
    /model.22/cv3.0/cv3.0.1/cv3.0.1.1/conv/Conv_output_0:
        qtype: asym
        qmethod: layer
        dtype: int8
        min:
        -   0.0
        max:
        -   22.50764274597168
        scale:
        -   0.08826526567047717
        zero_point:
        -   -128
        ori_min:
        -   -18.337732315063477
        ori_max:
        -   22.50764274597168
    /model.22/cv3.0/cv3.0.1/cv3.0.1.1/act/Relu_output_0:
        qtype: asym
        qmethod: layer
        dtype: int8
        min:
        -   0.0
        max:
        -   22.50764274597168
        scale:
        -   0.08826526567047717
        zero_point:
        -   -128
        ori_min:
        -   0.0
        ori_max:
        -   22.50764274597168
    /model.22/cv3.0/cv3.0.2/Conv_output_0:
        qtype: asym
        qmethod: layer
        dtype: int8
        min:
        -   -7.0
        max:
        -   1.6226916313171387
        scale:
        -   0.03381447698555741
        zero_point:
        -   79
        ori_min:
        -   -46.41437911987305
        ori_max:
        -   1.6226916313171387
    onnx::ReduceSum_290:
        qtype: asym
        qmethod: layer
        dtype: float32
        min:
        -   0.0
        max:
        -   0.8351659774780273
        scale: []
        zero_point: []
        ori_min:
        -   0.0
        ori_max:
        -   0.8351659774780273
    '292':
        qtype: asym
        qmethod: layer
        dtype: float32
        min:
        -   0.0
        max:
        -   0.8351659774780273
        scale: []
        zero_point: []
        ori_min:
        -   0.0
        ori_max:
        -   0.8351659774780273
    images_int8:
        qtype: asym
        qmethod: layer
        dtype: int8
        min:
        -   0.0
        max:
        -   1.0
        scale:
        -   0.00392156862745098
        zero_point:
        -   -128
        ori_min:
        -   0.0117647061124444
        ori_max:
        -   1.0
    280_int8:
        qtype: asym
        qmethod: layer
        dtype: int8
        min:
        -   -11.170201301574707
        max:
        -   15.608485221862793
        scale:
        -   0.10501445695465686
        zero_point:
        -   -22
        ori_min:
        -   -11.170201301574707
        ori_max:
        -   15.608485221862793
    onnx::ReduceSum_290_int8:
        qtype: asym
        qmethod: layer
        dtype: int8
        min:
        -   0.0
        max:
        -   0.8351659774780273
        scale:
        -   0.0032751606959922643
        zero_point:
        -   -128
        ori_min:
        -   0.0
        ori_max:
        -   0.8351659774780273
    292_int8:
        qtype: asym
        qmethod: layer
        dtype: int8
        min:
        -   0.0
        max:
        -   0.8351659774780273
        scale:
        -   0.0032751606959922643
        zero_point:
        -   -128
        ori_min:
        -   0.0
        ori_max:
        -   0.8351659774780273
    297_int8:
        qtype: asym
        qmethod: layer
        dtype: int8
        min:
        -   -7.646329879760742
        max:
        -   13.993590354919434
        scale:
        -   0.08486243229286343
        zero_point:
        -   -38
        ori_min:
        -   -7.646329879760742
        ori_max:
        -   13.993590354919434
    onnx::ReduceSum_307_int8:
        qtype: asym
        qmethod: layer
        dtype: int8
        min:
        -   0.0
        max:
        -   0.8610256910324097
        scale:
        -   0.0033765713373819987
        zero_point:
        -   -128
        ori_min:
        -   0.0
        ori_max:
        -   0.8610256910324097
    309_int8:
        qtype: asym
        qmethod: layer
        dtype: int8
        min:
        -   0.0
        max:
        -   0.8610256910324097
        scale:
        -   0.0033765713373819987
        zero_point:
        -   -128
        ori_min:
        -   0.0
        ori_max:
        -   0.8610256910324097
    314_int8:
        qtype: asym
        qmethod: layer
        dtype: int8
        min:
        -   -3.48126220703125
        max:
        -   8.088661193847656
        scale:
        -   0.04537224863089767
        zero_point:
        -   -51
        ori_min:
        -   -3.48126220703125
        ori_max:
        -   8.088661193847656
    onnx::ReduceSum_324_int8:
        qtype: asym
        qmethod: layer
        dtype: int8
        min:
        -   0.0
        max:
        -   0.5
        scale:
        -   0.00196078431372549
        zero_point:
        -   -128
        ori_min:
        -   0.0
        ori_max:
        -   0.0020988881587982178
    326_int8:
        qtype: asym
        qmethod: layer
        dtype: int8
        min:
        -   0.0
        max:
        -   0.0020988881587982178
        scale:
        -   8.230933956071442e-06
        zero_point:
        -   -128
        ori_min:
        -   0.0
        ori_max:
        -   0.0020988881587982178
