custom_quantize_layers:                                                                             # 0.9904242644721738
    /model.1/conv/Conv_output_0: float16
    /model.1/act/Relu_output_0: float16                                                             # 0.9906766001650832
    /model.0/conv/Conv_output_0: float16
    /model.0/act/Relu_output_0: float16                                                             # 0.9979283162244243
    /model.2/cv1/conv/Conv_output_0: float16
    /model.2/cv1/act/Relu_output_0: float16                                                         # 0.9990218228729933
    /model.2/Split_output_0: float16                                                                # 0.999218519613456
    /model.2/cv2/conv/Conv_output_0: float16
    /model.2/cv2/act/Relu_output_0: float16                                                         # 0.9993000175817737
    /model.2/Concat_output_0: float16                                                               # 0.9994372443318066
    /model.2/m.0/cv1/conv/Conv_output_0: float16
    /model.2/m.0/cv1/act/Relu_output_0: float16                                                     # 0.9995272271550694
    /model.4/Split_output_0: float16                                                                # 0.9995358371287008
    306_int8: float16                                                                               # 0.9995906581786906
    /model.4/cv1/conv/Conv_output_0: float16
    /model.4/cv1/act/Relu_output_0: float16                                                         # 0.9996506775202015
    /model.2/m.0/Add_output_0: float16                                                              # 0.9996693598445091
    /model.3/conv/Conv_output_0: float16
    /model.3/act/Relu_output_0: float16                                                             # 0.9997036559343236
    '306': float16                                                                                  # 0.9997036559343236
    /model.2/m.0/cv2/conv/Conv_output_0: float16
    /model.2/m.0/cv2/act/Relu_output_0: float16                                                     # 0.9997414383792096
    /model.21/cv2.0/cv2.0.1/conv/Conv_output_0: float16
    /model.21/cv2.0/cv2.0.1/act/Relu_output_0: float16                                              # 0.9997694031892074
quantize_parameters:
    images:
        qtype: asym
        qmethod: layer
        dtype: float32
        min:
        -   0.0117647061124444
        max:
        -   1.0
        scale: []
        zero_point: []
        ori_min:
        -   0.0117647061124444
        ori_max:
        -   1.0
    /model.0/conv/Conv_output_0:
        qtype: asym
        qmethod: layer
        dtype: int8
        min:
        -   0.0
        max:
        -   40.78471374511719
        scale:
        -   0.15994005390242033
        zero_point:
        -   -128
        ori_min:
        -   -57.37813949584961
        ori_max:
        -   40.78471374511719
    /model.0/act/Relu_output_0:
        qtype: asym
        qmethod: layer
        dtype: int8
        min:
        -   0.0
        max:
        -   40.78471374511719
        scale:
        -   0.15994005390242033
        zero_point:
        -   -128
        ori_min:
        -   0.0
        ori_max:
        -   40.78471374511719
    /model.1/conv/Conv_output_0:
        qtype: asym
        qmethod: layer
        dtype: int8
        min:
        -   0.0
        max:
        -   64.20002746582031
        scale:
        -   0.2517648135914522
        zero_point:
        -   -128
        ori_min:
        -   -63.252708435058594
        ori_max:
        -   64.20002746582031
    /model.1/act/Relu_output_0:
        qtype: asym
        qmethod: layer
        dtype: int8
        min:
        -   0.0
        max:
        -   64.20002746582031
        scale:
        -   0.2517648135914522
        zero_point:
        -   -128
        ori_min:
        -   0.0
        ori_max:
        -   64.20002746582031
    /model.2/cv1/conv/Conv_output_0:
        qtype: asym
        qmethod: layer
        dtype: int8
        min:
        -   0.0
        max:
        -   27.37887191772461
        scale:
        -   0.10736812516754748
        zero_point:
        -   -128
        ori_min:
        -   -47.40415573120117
        ori_max:
        -   27.37887191772461
    /model.2/cv1/act/Relu_output_0:
        qtype: asym
        qmethod: layer
        dtype: int8
        min:
        -   0.0
        max:
        -   27.37887191772461
        scale:
        -   0.10736812516754748
        zero_point:
        -   -128
        ori_min:
        -   0.0
        ori_max:
        -   27.37887191772461
    /model.2/Split_output_0:
        qtype: asym
        qmethod: layer
        dtype: int8
        min:
        -   0.0
        max:
        -   27.37887191772461
        scale:
        -   0.10736812516754748
        zero_point:
        -   -128
        ori_min:
        -   0.0
        ori_max:
        -   27.37887191772461
    /model.2/Split_output_1:
        qtype: asym
        qmethod: layer
        dtype: int8
        min:
        -   0.0
        max:
        -   20.01470947265625
        scale:
        -   0.07848905675551471
        zero_point:
        -   -128
        ori_min:
        -   0.0
        ori_max:
        -   20.01470947265625
    /model.2/m.0/cv1/conv/Conv_output_0:
        qtype: asym
        qmethod: layer
        dtype: int8
        min:
        -   0.0
        max:
        -   24.29068946838379
        scale:
        -   0.0952576057583678
        zero_point:
        -   -128
        ori_min:
        -   -33.75115203857422
        ori_max:
        -   24.29068946838379
    /model.2/m.0/cv1/act/Relu_output_0:
        qtype: asym
        qmethod: layer
        dtype: int8
        min:
        -   0.0
        max:
        -   24.29068946838379
        scale:
        -   0.0952576057583678
        zero_point:
        -   -128
        ori_min:
        -   0.0
        ori_max:
        -   24.29068946838379
    /model.2/m.0/cv2/conv/Conv_output_0:
        qtype: asym
        qmethod: layer
        dtype: int8
        min:
        -   0.0
        max:
        -   29.186809539794922
        scale:
        -   0.11445807662664675
        zero_point:
        -   -128
        ori_min:
        -   -30.51186180114746
        ori_max:
        -   29.186809539794922
    /model.2/m.0/cv2/act/Relu_output_0:
        qtype: asym
        qmethod: layer
        dtype: int8
        min:
        -   0.0
        max:
        -   29.186809539794922
        scale:
        -   0.11445807662664675
        zero_point:
        -   -128
        ori_min:
        -   0.0
        ori_max:
        -   29.186809539794922
    /model.2/m.0/Add_output_0:
        qtype: asym
        qmethod: layer
        dtype: int8
        min:
        -   0.0
        max:
        -   30.42219352722168
        scale:
        -   0.11930271971459482
        zero_point:
        -   -128
        ori_min:
        -   0.0
        ori_max:
        -   30.42219352722168
    /model.2/Concat_output_0:
        qtype: asym
        qmethod: layer
        dtype: int8
        min:
        -   0.0
        max:
        -   30.42219352722168
        scale:
        -   0.11930271971459482
        zero_point:
        -   -128
        ori_min:
        -   0.0
        ori_max:
        -   30.42219352722168
    /model.2/cv2/conv/Conv_output_0:
        qtype: asym
        qmethod: layer
        dtype: int8
        min:
        -   0.0
        max:
        -   21.908679962158203
        scale:
        -   0.08591639200846354
        zero_point:
        -   -128
        ori_min:
        -   -30.545747756958008
        ori_max:
        -   21.908679962158203
    /model.2/cv2/act/Relu_output_0:
        qtype: asym
        qmethod: layer
        dtype: int8
        min:
        -   0.0
        max:
        -   21.908679962158203
        scale:
        -   0.08591639200846354
        zero_point:
        -   -128
        ori_min:
        -   0.0
        ori_max:
        -   21.908679962158203
    /model.3/conv/Conv_output_0:
        qtype: asym
        qmethod: layer
        dtype: int8
        min:
        -   0.0
        max:
        -   18.7137451171875
        scale:
        -   0.07338723575367648
        zero_point:
        -   -128
        ori_min:
        -   -18.476932525634766
        ori_max:
        -   18.7137451171875
    /model.3/act/Relu_output_0:
        qtype: asym
        qmethod: layer
        dtype: int8
        min:
        -   0.0
        max:
        -   18.7137451171875
        scale:
        -   0.07338723575367648
        zero_point:
        -   -128
        ori_min:
        -   0.0
        ori_max:
        -   18.7137451171875
    /model.4/cv1/conv/Conv_output_0:
        qtype: asym
        qmethod: layer
        dtype: int8
        min:
        -   0.0
        max:
        -   15.119153022766113
        scale:
        -   0.05929079616771025
        zero_point:
        -   -128
        ori_min:
        -   -19.250774383544922
        ori_max:
        -   15.119153022766113
    /model.4/cv1/act/Relu_output_0:
        qtype: asym
        qmethod: layer
        dtype: int8
        min:
        -   0.0
        max:
        -   15.119153022766113
        scale:
        -   0.05929079616771025
        zero_point:
        -   -128
        ori_min:
        -   0.0
        ori_max:
        -   15.119153022766113
    /model.4/Split_output_0:
        qtype: asym
        qmethod: layer
        dtype: int8
        min:
        -   0.0
        max:
        -   15.119153022766113
        scale:
        -   0.05929079616771025
        zero_point:
        -   -128
        ori_min:
        -   0.0
        ori_max:
        -   15.119153022766113
    /model.4/Split_output_1:
        qtype: asym
        qmethod: layer
        dtype: int8
        min:
        -   0.0
        max:
        -   12.126925468444824
        scale:
        -   0.04755657046448951
        zero_point:
        -   -128
        ori_min:
        -   0.0
        ori_max:
        -   12.126925468444824
    /model.4/m.0/cv1/conv/Conv_output_0:
        qtype: asym
        qmethod: layer
        dtype: int8
        min:
        -   0.0
        max:
        -   14.502622604370117
        scale:
        -   0.05687302982105928
        zero_point:
        -   -128
        ori_min:
        -   -16.3024959564209
        ori_max:
        -   14.502622604370117
    /model.4/m.0/cv1/act/Relu_output_0:
        qtype: asym
        qmethod: layer
        dtype: int8
        min:
        -   0.0
        max:
        -   14.502622604370117
        scale:
        -   0.05687302982105928
        zero_point:
        -   -128
        ori_min:
        -   0.0
        ori_max:
        -   14.502622604370117
    /model.4/m.0/cv2/conv/Conv_output_0:
        qtype: asym
        qmethod: layer
        dtype: int8
        min:
        -   0.0
        max:
        -   13.20833683013916
        scale:
        -   0.05179739933387906
        zero_point:
        -   -128
        ori_min:
        -   -14.491508483886719
        ori_max:
        -   13.20833683013916
    /model.4/m.0/cv2/act/Relu_output_0:
        qtype: asym
        qmethod: layer
        dtype: int8
        min:
        -   0.0
        max:
        -   13.20833683013916
        scale:
        -   0.05179739933387906
        zero_point:
        -   -128
        ori_min:
        -   0.0
        ori_max:
        -   13.20833683013916
    /model.4/m.0/Add_output_0:
        qtype: asym
        qmethod: layer
        dtype: int8
        min:
        -   0.0
        max:
        -   13.20833683013916
        scale:
        -   0.05179739933387906
        zero_point:
        -   -128
        ori_min:
        -   0.0
        ori_max:
        -   13.20833683013916
    /model.4/m.1/cv1/conv/Conv_output_0:
        qtype: asym
        qmethod: layer
        dtype: int8
        min:
        -   0.0
        max:
        -   8.778040885925293
        scale:
        -   0.03442368974872664
        zero_point:
        -   -128
        ori_min:
        -   -12.962944984436035
        ori_max:
        -   8.778040885925293
    /model.4/m.1/cv1/act/Relu_output_0:
        qtype: asym
        qmethod: layer
        dtype: int8
        min:
        -   0.0
        max:
        -   8.778040885925293
        scale:
        -   0.03442368974872664
        zero_point:
        -   -128
        ori_min:
        -   0.0
        ori_max:
        -   8.778040885925293
    /model.4/m.1/cv2/conv/Conv_output_0:
        qtype: asym
        qmethod: layer
        dtype: int8
        min:
        -   0.0
        max:
        -   16.41287612915039
        scale:
        -   0.06436422011431525
        zero_point:
        -   -128
        ori_min:
        -   -14.131665229797363
        ori_max:
        -   16.41287612915039
    /model.4/m.1/cv2/act/Relu_output_0:
        qtype: asym
        qmethod: layer
        dtype: int8
        min:
        -   0.0
        max:
        -   16.41287612915039
        scale:
        -   0.06436422011431525
        zero_point:
        -   -128
        ori_min:
        -   0.0
        ori_max:
        -   16.41287612915039
    /model.4/m.1/Add_output_0:
        qtype: asym
        qmethod: layer
        dtype: int8
        min:
        -   0.0
        max:
        -   20.745361328125
        scale:
        -   0.08135435814950981
        zero_point:
        -   -128
        ori_min:
        -   0.0
        ori_max:
        -   20.745361328125
    /model.4/Concat_output_0:
        qtype: asym
        qmethod: layer
        dtype: int8
        min:
        -   0.0
        max:
        -   20.745361328125
        scale:
        -   0.08135435814950981
        zero_point:
        -   -128
        ori_min:
        -   0.0
        ori_max:
        -   20.745361328125
    /model.4/cv2/conv/Conv_output_0:
        qtype: asym
        qmethod: layer
        dtype: int8
        min:
        -   0.0
        max:
        -   14.581267356872559
        scale:
        -   0.057181440615186506
        zero_point:
        -   -128
        ori_min:
        -   -16.74284553527832
        ori_max:
        -   14.581267356872559
    /model.4/cv2/act/Relu_output_0:
        qtype: asym
        qmethod: layer
        dtype: int8
        min:
        -   0.0
        max:
        -   14.581267356872559
        scale:
        -   0.057181440615186506
        zero_point:
        -   -128
        ori_min:
        -   0.0
        ori_max:
        -   14.581267356872559
    /model.16/Mul_1_output_0:
        qtype: asym
        qmethod: layer
        dtype: int8
        min:
        -   0.0
        max:
        -   9.207098960876465
        scale:
        -   0.03610627043480966
        zero_point:
        -   -128
        ori_min:
        -   0.0
        ori_max:
        -   9.207098960876465
    /model.5/conv/Conv_output_0:
        qtype: asym
        qmethod: layer
        dtype: int8
        min:
        -   0.0
        max:
        -   11.441468238830566
        scale:
        -   0.04486850289737477
        zero_point:
        -   -128
        ori_min:
        -   -8.842432975769043
        ori_max:
        -   11.441468238830566
    /model.5/act/Relu_output_0:
        qtype: asym
        qmethod: layer
        dtype: int8
        min:
        -   0.0
        max:
        -   11.441468238830566
        scale:
        -   0.04486850289737477
        zero_point:
        -   -128
        ori_min:
        -   0.0
        ori_max:
        -   11.441468238830566
    /model.6/cv1/conv/Conv_output_0:
        qtype: asym
        qmethod: layer
        dtype: int8
        min:
        -   0.0
        max:
        -   10.556522369384766
        scale:
        -   0.04139812693876379
        zero_point:
        -   -128
        ori_min:
        -   -10.720075607299805
        ori_max:
        -   10.556522369384766
    /model.6/cv1/act/Relu_output_0:
        qtype: asym
        qmethod: layer
        dtype: int8
        min:
        -   0.0
        max:
        -   10.556522369384766
        scale:
        -   0.04139812693876379
        zero_point:
        -   -128
        ori_min:
        -   0.0
        ori_max:
        -   10.556522369384766
    /model.6/Split_output_0:
        qtype: asym
        qmethod: layer
        dtype: int8
        min:
        -   0.0
        max:
        -   8.658888816833496
        scale:
        -   0.03395642673268038
        zero_point:
        -   -128
        ori_min:
        -   0.0
        ori_max:
        -   8.658888816833496
    /model.6/Split_output_1:
        qtype: asym
        qmethod: layer
        dtype: int8
        min:
        -   0.0
        max:
        -   10.556522369384766
        scale:
        -   0.04139812693876379
        zero_point:
        -   -128
        ori_min:
        -   0.0
        ori_max:
        -   10.556522369384766
    /model.6/m.0/cv1/conv/Conv_output_0:
        qtype: asym
        qmethod: layer
        dtype: int8
        min:
        -   0.0
        max:
        -   11.447080612182617
        scale:
        -   0.04489051220463772
        zero_point:
        -   -128
        ori_min:
        -   -11.9347505569458
        ori_max:
        -   11.447080612182617
    /model.6/m.0/cv1/act/Relu_output_0:
        qtype: asym
        qmethod: layer
        dtype: int8
        min:
        -   0.0
        max:
        -   11.447080612182617
        scale:
        -   0.04489051220463772
        zero_point:
        -   -128
        ori_min:
        -   0.0
        ori_max:
        -   11.447080612182617
    /model.6/m.0/cv2/conv/Conv_output_0:
        qtype: asym
        qmethod: layer
        dtype: int8
        min:
        -   0.0
        max:
        -   10.101058959960938
        scale:
        -   0.03961199592141544
        zero_point:
        -   -128
        ori_min:
        -   -9.036540031433105
        ori_max:
        -   10.101058959960938
    /model.6/m.0/cv2/act/Relu_output_0:
        qtype: asym
        qmethod: layer
        dtype: int8
        min:
        -   0.0
        max:
        -   10.101058959960938
        scale:
        -   0.03961199592141544
        zero_point:
        -   -128
        ori_min:
        -   0.0
        ori_max:
        -   10.101058959960938
    /model.6/m.0/Add_output_0:
        qtype: asym
        qmethod: layer
        dtype: int8
        min:
        -   0.0
        max:
        -   14.77845573425293
        scale:
        -   0.05795472836961933
        zero_point:
        -   -128
        ori_min:
        -   0.0
        ori_max:
        -   14.77845573425293
    /model.6/m.1/cv1/conv/Conv_output_0:
        qtype: asym
        qmethod: layer
        dtype: int8
        min:
        -   0.0
        max:
        -   9.688641548156738
        scale:
        -   0.037994672737869564
        zero_point:
        -   -128
        ori_min:
        -   -10.378070831298828
        ori_max:
        -   9.688641548156738
    /model.6/m.1/cv1/act/Relu_output_0:
        qtype: asym
        qmethod: layer
        dtype: int8
        min:
        -   0.0
        max:
        -   9.688641548156738
        scale:
        -   0.037994672737869564
        zero_point:
        -   -128
        ori_min:
        -   0.0
        ori_max:
        -   9.688641548156738
    /model.6/m.1/cv2/conv/Conv_output_0:
        qtype: asym
        qmethod: layer
        dtype: int8
        min:
        -   0.0
        max:
        -   11.645719528198242
        scale:
        -   0.04566948834587546
        zero_point:
        -   -128
        ori_min:
        -   -8.778665542602539
        ori_max:
        -   11.645719528198242
    /model.6/m.1/cv2/act/Relu_output_0:
        qtype: asym
        qmethod: layer
        dtype: int8
        min:
        -   0.0
        max:
        -   11.645719528198242
        scale:
        -   0.04566948834587546
        zero_point:
        -   -128
        ori_min:
        -   0.0
        ori_max:
        -   11.645719528198242
    /model.6/m.1/Add_output_0:
        qtype: asym
        qmethod: layer
        dtype: int8
        min:
        -   0.0
        max:
        -   14.77845573425293
        scale:
        -   0.05795472836961933
        zero_point:
        -   -128
        ori_min:
        -   0.0
        ori_max:
        -   14.77845573425293
    /model.6/Concat_output_0:
        qtype: asym
        qmethod: layer
        dtype: int8
        min:
        -   0.0
        max:
        -   14.77845573425293
        scale:
        -   0.05795472836961933
        zero_point:
        -   -128
        ori_min:
        -   0.0
        ori_max:
        -   14.77845573425293
    /model.6/cv2/conv/Conv_output_0:
        qtype: asym
        qmethod: layer
        dtype: int8
        min:
        -   0.0
        max:
        -   12.443365097045898
        scale:
        -   0.04879751018449372
        zero_point:
        -   -128
        ori_min:
        -   -9.3576078414917
        ori_max:
        -   12.443365097045898
    /model.6/cv2/act/Relu_output_0:
        qtype: asym
        qmethod: layer
        dtype: int8
        min:
        -   0.0
        max:
        -   12.443365097045898
        scale:
        -   0.04879751018449372
        zero_point:
        -   -128
        ori_min:
        -   0.0
        ori_max:
        -   12.443365097045898
    /model.19/Mul_2_output_0:
        qtype: asym
        qmethod: layer
        dtype: int8
        min:
        -   0.0
        max:
        -   4.556789875030518
        scale:
        -   0.017869764215805953
        zero_point:
        -   -128
        ori_min:
        -   0.0
        ori_max:
        -   4.556789875030518
    /model.12/Mul_1_output_0:
        qtype: asym
        qmethod: layer
        dtype: int8
        min:
        -   0.0
        max:
        -   6.835862159729004
        scale:
        -   0.026807302587172566
        zero_point:
        -   -128
        ori_min:
        -   0.0
        ori_max:
        -   6.835862159729004
    /model.7/conv/Conv_output_0:
        qtype: asym
        qmethod: layer
        dtype: int8
        min:
        -   0.0
        max:
        -   9.258269309997559
        scale:
        -   0.03630693847057866
        zero_point:
        -   -128
        ori_min:
        -   -7.5500030517578125
        ori_max:
        -   9.258269309997559
    /model.7/act/Relu_output_0:
        qtype: asym
        qmethod: layer
        dtype: int8
        min:
        -   0.0
        max:
        -   9.258269309997559
        scale:
        -   0.03630693847057866
        zero_point:
        -   -128
        ori_min:
        -   0.0
        ori_max:
        -   9.258269309997559
    /model.8/cv1/conv/Conv_output_0:
        qtype: asym
        qmethod: layer
        dtype: int8
        min:
        -   0.0
        max:
        -   11.05540943145752
        scale:
        -   0.04335454679002949
        zero_point:
        -   -128
        ori_min:
        -   -8.397321701049805
        ori_max:
        -   11.05540943145752
    /model.8/cv1/act/Relu_output_0:
        qtype: asym
        qmethod: layer
        dtype: int8
        min:
        -   0.0
        max:
        -   11.05540943145752
        scale:
        -   0.04335454679002949
        zero_point:
        -   -128
        ori_min:
        -   0.0
        ori_max:
        -   11.05540943145752
    /model.8/Split_output_0:
        qtype: asym
        qmethod: layer
        dtype: int8
        min:
        -   0.0
        max:
        -   8.17719554901123
        scale:
        -   0.03206743352553424
        zero_point:
        -   -128
        ori_min:
        -   0.0
        ori_max:
        -   8.17719554901123
    /model.8/Split_output_1:
        qtype: asym
        qmethod: layer
        dtype: int8
        min:
        -   0.0
        max:
        -   11.05540943145752
        scale:
        -   0.04335454679002949
        zero_point:
        -   -128
        ori_min:
        -   0.0
        ori_max:
        -   11.05540943145752
    /model.8/m.0/cv1/conv/Conv_output_0:
        qtype: asym
        qmethod: layer
        dtype: int8
        min:
        -   0.0
        max:
        -   7.454451560974121
        scale:
        -   0.029233143376369102
        zero_point:
        -   -128
        ori_min:
        -   -8.031966209411621
        ori_max:
        -   7.454451560974121
    /model.8/m.0/cv1/act/Relu_output_0:
        qtype: asym
        qmethod: layer
        dtype: int8
        min:
        -   0.0
        max:
        -   7.454451560974121
        scale:
        -   0.029233143376369102
        zero_point:
        -   -128
        ori_min:
        -   0.0
        ori_max:
        -   7.454451560974121
    /model.8/m.0/cv2/conv/Conv_output_0:
        qtype: asym
        qmethod: layer
        dtype: int8
        min:
        -   0.0
        max:
        -   7.846013069152832
        scale:
        -   0.030768678702560125
        zero_point:
        -   -128
        ori_min:
        -   -5.614801406860352
        ori_max:
        -   7.846013069152832
    /model.8/m.0/cv2/act/Relu_output_0:
        qtype: asym
        qmethod: layer
        dtype: int8
        min:
        -   0.0
        max:
        -   7.846013069152832
        scale:
        -   0.030768678702560125
        zero_point:
        -   -128
        ori_min:
        -   0.0
        ori_max:
        -   7.846013069152832
    /model.8/m.0/Add_output_0:
        qtype: asym
        qmethod: layer
        dtype: int8
        min:
        -   0.0
        max:
        -   11.05540943145752
        scale:
        -   0.04335454679002949
        zero_point:
        -   -128
        ori_min:
        -   0.0
        ori_max:
        -   11.05540943145752
    /model.8/Concat_output_0:
        qtype: asym
        qmethod: layer
        dtype: int8
        min:
        -   0.0
        max:
        -   11.05540943145752
        scale:
        -   0.04335454679002949
        zero_point:
        -   -128
        ori_min:
        -   0.0
        ori_max:
        -   11.05540943145752
    /model.8/cv2/conv/Conv_output_0:
        qtype: asym
        qmethod: layer
        dtype: int8
        min:
        -   0.0
        max:
        -   7.061936378479004
        scale:
        -   0.027693868150898054
        zero_point:
        -   -128
        ori_min:
        -   -8.533180236816406
        ori_max:
        -   7.061936378479004
    /model.8/cv2/act/Relu_output_0:
        qtype: asym
        qmethod: layer
        dtype: int8
        min:
        -   0.0
        max:
        -   7.061936378479004
        scale:
        -   0.027693868150898054
        zero_point:
        -   -128
        ori_min:
        -   0.0
        ori_max:
        -   7.061936378479004
    /model.9/cv1/conv/Conv_output_0:
        qtype: asym
        qmethod: layer
        dtype: int8
        min:
        -   0.0
        max:
        -   7.394084930419922
        scale:
        -   0.02899641149184283
        zero_point:
        -   -128
        ori_min:
        -   -5.733865261077881
        ori_max:
        -   7.394084930419922
    /model.9/cv1/act/Relu_output_0:
        qtype: asym
        qmethod: layer
        dtype: int8
        min:
        -   0.0
        max:
        -   7.394084930419922
        scale:
        -   0.02899641149184283
        zero_point:
        -   -128
        ori_min:
        -   0.0
        ori_max:
        -   7.394084930419922
    /model.9/m/MaxPool_output_0:
        qtype: asym
        qmethod: layer
        dtype: int8
        min:
        -   0.0
        max:
        -   7.394084930419922
        scale:
        -   0.02899641149184283
        zero_point:
        -   -128
        ori_min:
        -   0.0
        ori_max:
        -   7.394084930419922
    /model.9/m_1/MaxPool_output_0:
        qtype: asym
        qmethod: layer
        dtype: int8
        min:
        -   0.0
        max:
        -   7.394084930419922
        scale:
        -   0.02899641149184283
        zero_point:
        -   -128
        ori_min:
        -   0.0
        ori_max:
        -   7.394084930419922
    /model.9/m_2/MaxPool_output_0:
        qtype: asym
        qmethod: layer
        dtype: int8
        min:
        -   0.0
        max:
        -   7.394084930419922
        scale:
        -   0.02899641149184283
        zero_point:
        -   -128
        ori_min:
        -   0.0
        ori_max:
        -   7.394084930419922
    /model.9/Concat_output_0:
        qtype: asym
        qmethod: layer
        dtype: int8
        min:
        -   0.0
        max:
        -   7.394084930419922
        scale:
        -   0.02899641149184283
        zero_point:
        -   -128
        ori_min:
        -   0.0
        ori_max:
        -   7.394084930419922
    /model.9/cv2/conv/Conv_output_0:
        qtype: asym
        qmethod: layer
        dtype: int8
        min:
        -   0.0
        max:
        -   5.152113437652588
        scale:
        -   0.02020436642216701
        zero_point:
        -   -128
        ori_min:
        -   -5.143078804016113
        ori_max:
        -   5.152113437652588
    /model.9/cv2/act/Relu_output_0:
        qtype: asym
        qmethod: layer
        dtype: int8
        min:
        -   0.0
        max:
        -   5.152113437652588
        scale:
        -   0.02020436642216701
        zero_point:
        -   -128
        ori_min:
        -   0.0
        ori_max:
        -   5.152113437652588
    /model.10/conv/Conv_output_0:
        qtype: asym
        qmethod: layer
        dtype: int8
        min:
        -   0.0
        max:
        -   6.184144973754883
        scale:
        -   0.024251548916685815
        zero_point:
        -   -128
        ori_min:
        -   -5.40133810043335
        ori_max:
        -   6.184144973754883
    /model.10/act/Relu_output_0:
        qtype: asym
        qmethod: layer
        dtype: int8
        min:
        -   0.0
        max:
        -   6.184144973754883
        scale:
        -   0.024251548916685815
        zero_point:
        -   -128
        ori_min:
        -   0.0
        ori_max:
        -   6.184144973754883
    /model.11/Upsample_output_0:
        qtype: asym
        qmethod: layer
        dtype: int8
        min:
        -   0.0
        max:
        -   6.184144973754883
        scale:
        -   0.024251548916685815
        zero_point:
        -   -128
        ori_min:
        -   0.0
        ori_max:
        -   6.184144973754883
    /model.12/Mul_output_0:
        qtype: asym
        qmethod: layer
        dtype: int8
        min:
        -   0.0
        max:
        -   2.786541223526001
        scale:
        -   0.010927612641278435
        zero_point:
        -   -128
        ori_min:
        -   0.0
        ori_max:
        -   2.786541223526001
    /model.12/Add_1_output_0:
        qtype: asym
        qmethod: layer
        dtype: int8
        min:
        -   0.0
        max:
        -   7.010066509246826
        scale:
        -   0.02749045689900716
        zero_point:
        -   -128
        ori_min:
        -   0.0
        ori_max:
        -   7.010066509246826
    /model.12/silu/Mul_output_0:
        qtype: asym
        qmethod: layer
        dtype: int8
        min:
        -   0.0
        max:
        -   7.003743648529053
        scale:
        -   0.027465661366780598
        zero_point:
        -   -128
        ori_min:
        -   0.0
        ori_max:
        -   7.003743648529053
    /model.12/conv/Conv_output_0:
        qtype: asym
        qmethod: layer
        dtype: int8
        min:
        -   -3.580545425415039
        max:
        -   3.0344836711883545
        scale:
        -   0.02594129057491527
        zero_point:
        -   10
        ori_min:
        -   -3.580545425415039
        ori_max:
        -   3.0344836711883545
    /model.13/cv1/conv/Conv_output_0:
        qtype: asym
        qmethod: layer
        dtype: int8
        min:
        -   0.0
        max:
        -   12.2146635055542
        scale:
        -   0.04790064119825176
        zero_point:
        -   -128
        ori_min:
        -   -8.629040718078613
        ori_max:
        -   12.2146635055542
    /model.13/cv1/act/Relu_output_0:
        qtype: asym
        qmethod: layer
        dtype: int8
        min:
        -   0.0
        max:
        -   12.2146635055542
        scale:
        -   0.04790064119825176
        zero_point:
        -   -128
        ori_min:
        -   0.0
        ori_max:
        -   12.2146635055542
    /model.13/m/m.0/cv1/conv/Conv_output_0:
        qtype: asym
        qmethod: layer
        dtype: int8
        min:
        -   0.0
        max:
        -   16.87702751159668
        scale:
        -   0.06618442161410462
        zero_point:
        -   -128
        ori_min:
        -   -10.751208305358887
        ori_max:
        -   16.87702751159668
    /model.13/m/m.0/cv1/act/Relu_output_0:
        qtype: asym
        qmethod: layer
        dtype: int8
        min:
        -   0.0
        max:
        -   16.87702751159668
        scale:
        -   0.06618442161410462
        zero_point:
        -   -128
        ori_min:
        -   0.0
        ori_max:
        -   16.87702751159668
    /model.13/m/m.0/cv2/conv/Conv_output_0:
        qtype: asym
        qmethod: layer
        dtype: int8
        min:
        -   0.0
        max:
        -   14.460991859436035
        scale:
        -   0.05670977199778837
        zero_point:
        -   -128
        ori_min:
        -   -11.845544815063477
        ori_max:
        -   14.460991859436035
    /model.13/m/m.0/cv2/act/Relu_output_0:
        qtype: asym
        qmethod: layer
        dtype: int8
        min:
        -   0.0
        max:
        -   14.460991859436035
        scale:
        -   0.05670977199778837
        zero_point:
        -   -128
        ori_min:
        -   0.0
        ori_max:
        -   14.460991859436035
    /model.13/cv2/conv/Conv_output_0:
        qtype: asym
        qmethod: layer
        dtype: int8
        min:
        -   0.0
        max:
        -   8.542768478393555
        scale:
        -   0.033501052856445314
        zero_point:
        -   -128
        ori_min:
        -   -9.055508613586426
        ori_max:
        -   8.542768478393555
    /model.13/cv2/act/Relu_output_0:
        qtype: asym
        qmethod: layer
        dtype: int8
        min:
        -   0.0
        max:
        -   8.542768478393555
        scale:
        -   0.033501052856445314
        zero_point:
        -   -128
        ori_min:
        -   0.0
        ori_max:
        -   8.542768478393555
    /model.13/Concat_output_0:
        qtype: asym
        qmethod: layer
        dtype: int8
        min:
        -   0.0
        max:
        -   14.460991859436035
        scale:
        -   0.05670977199778837
        zero_point:
        -   -128
        ori_min:
        -   0.0
        ori_max:
        -   14.460991859436035
    /model.13/cv3/conv/Conv_output_0:
        qtype: asym
        qmethod: layer
        dtype: int8
        min:
        -   0.0
        max:
        -   13.089578628540039
        scale:
        -   0.051331680896235445
        zero_point:
        -   -128
        ori_min:
        -   -14.459819793701172
        ori_max:
        -   13.089578628540039
    /model.13/cv3/act/Relu_output_0:
        qtype: asym
        qmethod: layer
        dtype: int8
        min:
        -   0.0
        max:
        -   13.089578628540039
        scale:
        -   0.051331680896235445
        zero_point:
        -   -128
        ori_min:
        -   0.0
        ori_max:
        -   13.089578628540039
    /model.19/Mul_1_output_0:
        qtype: asym
        qmethod: layer
        dtype: int8
        min:
        -   0.0
        max:
        -   4.969261646270752
        scale:
        -   0.019487300573610793
        zero_point:
        -   -128
        ori_min:
        -   0.0
        ori_max:
        -   4.969261646270752
    /model.14/conv/Conv_output_0:
        qtype: asym
        qmethod: layer
        dtype: int8
        min:
        -   0.0
        max:
        -   17.45585060119629
        scale:
        -   0.0684543160831227
        zero_point:
        -   -128
        ori_min:
        -   -8.802457809448242
        ori_max:
        -   17.45585060119629
    /model.14/act/Relu_output_0:
        qtype: asym
        qmethod: layer
        dtype: int8
        min:
        -   0.0
        max:
        -   17.45585060119629
        scale:
        -   0.0684543160831227
        zero_point:
        -   -128
        ori_min:
        -   0.0
        ori_max:
        -   17.45585060119629
    /model.15/Upsample_output_0:
        qtype: asym
        qmethod: layer
        dtype: int8
        min:
        -   0.0
        max:
        -   17.45585060119629
        scale:
        -   0.0684543160831227
        zero_point:
        -   -128
        ori_min:
        -   0.0
        ori_max:
        -   17.45585060119629
    /model.16/Mul_output_0:
        qtype: asym
        qmethod: layer
        dtype: int8
        min:
        -   0.0
        max:
        -   6.432960510253906
        scale:
        -   0.02522729611864277
        zero_point:
        -   -128
        ori_min:
        -   0.0
        ori_max:
        -   6.432960510253906
    /model.16/Add_1_output_0:
        qtype: asym
        qmethod: layer
        dtype: int8
        min:
        -   0.0
        max:
        -   9.207098960876465
        scale:
        -   0.03610627043480966
        zero_point:
        -   -128
        ori_min:
        -   0.0
        ori_max:
        -   9.207098960876465
    /model.16/silu/Mul_output_0:
        qtype: asym
        qmethod: layer
        dtype: int8
        min:
        -   0.0
        max:
        -   9.206174850463867
        scale:
        -   0.036102646472407324
        zero_point:
        -   -128
        ori_min:
        -   0.0
        ori_max:
        -   9.206174850463867
    /model.16/conv/Conv_output_0:
        qtype: asym
        qmethod: layer
        dtype: int8
        min:
        -   -8.059639930725098
        max:
        -   6.119003772735596
        scale:
        -   0.055602524327296836
        zero_point:
        -   17
        ori_min:
        -   -8.059639930725098
        ori_max:
        -   6.119003772735596
    /model.17/cv1/conv/Conv_output_0:
        qtype: asym
        qmethod: layer
        dtype: int8
        min:
        -   0.0
        max:
        -   15.867986679077148
        scale:
        -   0.06222739874147901
        zero_point:
        -   -128
        ori_min:
        -   -15.532458305358887
        ori_max:
        -   15.867986679077148
    /model.17/cv1/act/Relu_output_0:
        qtype: asym
        qmethod: layer
        dtype: int8
        min:
        -   0.0
        max:
        -   15.867986679077148
        scale:
        -   0.06222739874147901
        zero_point:
        -   -128
        ori_min:
        -   0.0
        ori_max:
        -   15.867986679077148
    /model.17/m/m.0/cv1/conv/Conv_output_0:
        qtype: asym
        qmethod: layer
        dtype: int8
        min:
        -   0.0
        max:
        -   17.256591796875
        scale:
        -   0.06767290900735294
        zero_point:
        -   -128
        ori_min:
        -   -16.078487396240234
        ori_max:
        -   17.256591796875
    /model.17/m/m.0/cv1/act/Relu_output_0:
        qtype: asym
        qmethod: layer
        dtype: int8
        min:
        -   0.0
        max:
        -   17.256591796875
        scale:
        -   0.06767290900735294
        zero_point:
        -   -128
        ori_min:
        -   0.0
        ori_max:
        -   17.256591796875
    /model.17/m/m.0/cv2/conv/Conv_output_0:
        qtype: asym
        qmethod: layer
        dtype: int8
        min:
        -   0.0
        max:
        -   18.761245727539062
        scale:
        -   0.07357351265701594
        zero_point:
        -   -128
        ori_min:
        -   -17.241697311401367
        ori_max:
        -   18.761245727539062
    /model.17/m/m.0/cv2/act/Relu_output_0:
        qtype: asym
        qmethod: layer
        dtype: int8
        min:
        -   0.0
        max:
        -   18.761245727539062
        scale:
        -   0.07357351265701594
        zero_point:
        -   -128
        ori_min:
        -   0.0
        ori_max:
        -   18.761245727539062
    /model.17/cv2/conv/Conv_output_0:
        qtype: asym
        qmethod: layer
        dtype: int8
        min:
        -   0.0
        max:
        -   14.822303771972656
        scale:
        -   0.0581266814587163
        zero_point:
        -   -128
        ori_min:
        -   -15.570417404174805
        ori_max:
        -   14.822303771972656
    /model.17/cv2/act/Relu_output_0:
        qtype: asym
        qmethod: layer
        dtype: int8
        min:
        -   0.0
        max:
        -   14.822303771972656
        scale:
        -   0.0581266814587163
        zero_point:
        -   -128
        ori_min:
        -   0.0
        ori_max:
        -   14.822303771972656
    /model.17/Concat_output_0:
        qtype: asym
        qmethod: layer
        dtype: int8
        min:
        -   0.0
        max:
        -   18.761245727539062
        scale:
        -   0.07357351265701594
        zero_point:
        -   -128
        ori_min:
        -   0.0
        ori_max:
        -   18.761245727539062
    /model.17/cv3/conv/Conv_output_0:
        qtype: asym
        qmethod: layer
        dtype: int8
        min:
        -   0.0
        max:
        -   16.898822784423828
        scale:
        -   0.0662698932722503
        zero_point:
        -   -128
        ori_min:
        -   -17.73883628845215
        ori_max:
        -   16.898822784423828
    /model.17/cv3/act/Relu_output_0:
        qtype: asym
        qmethod: layer
        dtype: int8
        min:
        -   0.0
        max:
        -   16.898822784423828
        scale:
        -   0.0662698932722503
        zero_point:
        -   -128
        ori_min:
        -   0.0
        ori_max:
        -   16.898822784423828
    /model.18/conv/Conv_output_0:
        qtype: asym
        qmethod: layer
        dtype: int8
        min:
        -   0.0
        max:
        -   22.721220016479492
        scale:
        -   0.08910282359403722
        zero_point:
        -   -128
        ori_min:
        -   -14.160531997680664
        ori_max:
        -   22.721220016479492
    /model.18/act/Relu_output_0:
        qtype: asym
        qmethod: layer
        dtype: int8
        min:
        -   0.0
        max:
        -   22.721220016479492
        scale:
        -   0.08910282359403722
        zero_point:
        -   -128
        ori_min:
        -   0.0
        ori_max:
        -   22.721220016479492
    /model.19/Mul_output_0:
        qtype: asym
        qmethod: layer
        dtype: int8
        min:
        -   0.0
        max:
        -   5.773861885070801
        scale:
        -   0.02264259562772863
        zero_point:
        -   -128
        ori_min:
        -   0.0
        ori_max:
        -   5.773861885070801
    /model.19/Add_1_output_0:
        qtype: asym
        qmethod: layer
        dtype: int8
        min:
        -   0.0
        max:
        -   7.358226299285889
        scale:
        -   0.02885578940896427
        zero_point:
        -   -128
        ori_min:
        -   0.0
        ori_max:
        -   7.358226299285889
    /model.19/Add_2_output_0:
        qtype: asym
        qmethod: layer
        dtype: int8
        min:
        -   0.0
        max:
        -   9.393975257873535
        scale:
        -   0.03683911865832759
        zero_point:
        -   -128
        ori_min:
        -   0.0
        ori_max:
        -   9.393975257873535
    /model.19/silu/Mul_output_0:
        qtype: asym
        qmethod: layer
        dtype: int8
        min:
        -   0.0
        max:
        -   9.393193244934082
        scale:
        -   0.03683605194091797
        zero_point:
        -   -128
        ori_min:
        -   0.0
        ori_max:
        -   9.393193244934082
    /model.19/conv/Conv_output_0:
        qtype: asym
        qmethod: layer
        dtype: int8
        min:
        -   -4.304130554199219
        max:
        -   4.422528266906738
        scale:
        -   0.03422219145531748
        zero_point:
        -   -2
        ori_min:
        -   -4.304130554199219
        ori_max:
        -   4.422528266906738
    /model.20/cv1/conv/Conv_output_0:
        qtype: asym
        qmethod: layer
        dtype: int8
        min:
        -   0.0
        max:
        -   16.19391441345215
        scale:
        -   0.06350554671942019
        zero_point:
        -   -128
        ori_min:
        -   -14.426352500915527
        ori_max:
        -   16.19391441345215
    /model.20/cv1/act/Relu_output_0:
        qtype: asym
        qmethod: layer
        dtype: int8
        min:
        -   0.0
        max:
        -   16.19391441345215
        scale:
        -   0.06350554671942019
        zero_point:
        -   -128
        ori_min:
        -   0.0
        ori_max:
        -   16.19391441345215
    /model.20/m/m.0/cv1/conv/Conv_output_0:
        qtype: asym
        qmethod: layer
        dtype: int8
        min:
        -   0.0
        max:
        -   19.19576072692871
        scale:
        -   0.07527749304677926
        zero_point:
        -   -128
        ori_min:
        -   -16.285404205322266
        ori_max:
        -   19.19576072692871
    /model.20/m/m.0/cv1/act/Relu_output_0:
        qtype: asym
        qmethod: layer
        dtype: int8
        min:
        -   0.0
        max:
        -   19.19576072692871
        scale:
        -   0.07527749304677926
        zero_point:
        -   -128
        ori_min:
        -   0.0
        ori_max:
        -   19.19576072692871
    /model.20/m/m.0/cv2/conv/Conv_output_0:
        qtype: asym
        qmethod: layer
        dtype: int8
        min:
        -   0.0
        max:
        -   16.279943466186523
        scale:
        -   0.06384291555367264
        zero_point:
        -   -128
        ori_min:
        -   -13.367076873779297
        ori_max:
        -   16.279943466186523
    /model.20/m/m.0/cv2/act/Relu_output_0:
        qtype: asym
        qmethod: layer
        dtype: int8
        min:
        -   0.0
        max:
        -   16.279943466186523
        scale:
        -   0.06384291555367264
        zero_point:
        -   -128
        ori_min:
        -   0.0
        ori_max:
        -   16.279943466186523
    /model.20/cv2/conv/Conv_output_0:
        qtype: asym
        qmethod: layer
        dtype: int8
        min:
        -   0.0
        max:
        -   17.66048240661621
        scale:
        -   0.06925679375143612
        zero_point:
        -   -128
        ori_min:
        -   -15.385480880737305
        ori_max:
        -   17.66048240661621
    /model.20/cv2/act/Relu_output_0:
        qtype: asym
        qmethod: layer
        dtype: int8
        min:
        -   0.0
        max:
        -   17.66048240661621
        scale:
        -   0.06925679375143612
        zero_point:
        -   -128
        ori_min:
        -   0.0
        ori_max:
        -   17.66048240661621
    /model.20/Concat_output_0:
        qtype: asym
        qmethod: layer
        dtype: int8
        min:
        -   0.0
        max:
        -   17.66048240661621
        scale:
        -   0.06925679375143612
        zero_point:
        -   -128
        ori_min:
        -   0.0
        ori_max:
        -   17.66048240661621
    /model.20/cv3/conv/Conv_output_0:
        qtype: asym
        qmethod: layer
        dtype: int8
        min:
        -   0.0
        max:
        -   15.21855354309082
        scale:
        -   0.059680602129767925
        zero_point:
        -   -128
        ori_min:
        -   -12.356670379638672
        ori_max:
        -   15.21855354309082
    /model.20/cv3/act/Relu_output_0:
        qtype: asym
        qmethod: layer
        dtype: int8
        min:
        -   0.0
        max:
        -   15.21855354309082
        scale:
        -   0.059680602129767925
        zero_point:
        -   -128
        ori_min:
        -   0.0
        ori_max:
        -   15.21855354309082
    /model.21/cv2.1/cv2.1.0/conv/Conv_output_0:
        qtype: asym
        qmethod: layer
        dtype: int8
        min:
        -   0.0
        max:
        -   14.325767517089844
        scale:
        -   0.05617948045917586
        zero_point:
        -   -128
        ori_min:
        -   -8.134880065917969
        ori_max:
        -   14.325767517089844
    /model.21/cv2.1/cv2.1.0/act/Relu_output_0:
        qtype: asym
        qmethod: layer
        dtype: int8
        min:
        -   0.0
        max:
        -   14.325767517089844
        scale:
        -   0.05617948045917586
        zero_point:
        -   -128
        ori_min:
        -   0.0
        ori_max:
        -   14.325767517089844
    /model.21/cv2.1/cv2.1.1/conv/Conv_output_0:
        qtype: asym
        qmethod: layer
        dtype: int8
        min:
        -   0.0
        max:
        -   10.098676681518555
        scale:
        -   0.03960265365301394
        zero_point:
        -   -128
        ori_min:
        -   -6.209798812866211
        ori_max:
        -   10.098676681518555
    /model.21/cv2.1/cv2.1.1/act/Relu_output_0:
        qtype: asym
        qmethod: layer
        dtype: int8
        min:
        -   0.0
        max:
        -   10.098676681518555
        scale:
        -   0.03960265365301394
        zero_point:
        -   -128
        ori_min:
        -   0.0
        ori_max:
        -   10.098676681518555
    '323':
        qtype: asym
        qmethod: layer
        dtype: float32
        min:
        -   -5.3699445724487305
        max:
        -   13.25861930847168
        scale: []
        zero_point: []
        ori_min:
        -   -5.3699445724487305
        ori_max:
        -   13.25861930847168
    /model.21/cv3.1/cv3.1.0/cv3.1.0.0/conv/Conv_output_0:
        qtype: asym
        qmethod: layer
        dtype: int8
        min:
        -   0.0
        max:
        -   20.482393264770508
        scale:
        -   0.08032311084223728
        zero_point:
        -   -128
        ori_min:
        -   -17.250640869140625
        ori_max:
        -   20.482393264770508
    /model.21/cv3.1/cv3.1.0/cv3.1.0.0/act/Relu_output_0:
        qtype: asym
        qmethod: layer
        dtype: int8
        min:
        -   0.0
        max:
        -   20.482393264770508
        scale:
        -   0.08032311084223728
        zero_point:
        -   -128
        ori_min:
        -   0.0
        ori_max:
        -   20.482393264770508
    /model.21/cv3.1/cv3.1.0/cv3.1.0.1/conv/Conv_output_0:
        qtype: asym
        qmethod: layer
        dtype: int8
        min:
        -   0.0
        max:
        -   13.665545463562012
        scale:
        -   0.05359037436690985
        zero_point:
        -   -128
        ori_min:
        -   -11.214567184448242
        ori_max:
        -   13.665545463562012
    /model.21/cv3.1/cv3.1.0/cv3.1.0.1/act/Relu_output_0:
        qtype: asym
        qmethod: layer
        dtype: int8
        min:
        -   0.0
        max:
        -   13.665545463562012
        scale:
        -   0.05359037436690985
        zero_point:
        -   -128
        ori_min:
        -   0.0
        ori_max:
        -   13.665545463562012
    /model.21/cv3.1/cv3.1.1/cv3.1.1.0/conv/Conv_output_0:
        qtype: asym
        qmethod: layer
        dtype: int8
        min:
        -   0.0
        max:
        -   20.19723892211914
        scale:
        -   0.07920485851811428
        zero_point:
        -   -128
        ori_min:
        -   -11.844396591186523
        ori_max:
        -   20.19723892211914
    /model.21/cv3.1/cv3.1.1/cv3.1.1.0/act/Relu_output_0:
        qtype: asym
        qmethod: layer
        dtype: int8
        min:
        -   0.0
        max:
        -   20.19723892211914
        scale:
        -   0.07920485851811428
        zero_point:
        -   -128
        ori_min:
        -   0.0
        ori_max:
        -   20.19723892211914
    /model.21/cv3.1/cv3.1.1/cv3.1.1.1/conv/Conv_output_0:
        qtype: asym
        qmethod: layer
        dtype: int8
        min:
        -   0.0
        max:
        -   10.988323211669922
        scale:
        -   0.04309146357517617
        zero_point:
        -   -128
        ori_min:
        -   -10.069897651672363
        ori_max:
        -   10.988323211669922
    /model.21/cv3.1/cv3.1.1/cv3.1.1.1/act/Relu_output_0:
        qtype: asym
        qmethod: layer
        dtype: int8
        min:
        -   0.0
        max:
        -   10.988323211669922
        scale:
        -   0.04309146357517617
        zero_point:
        -   -128
        ori_min:
        -   0.0
        ori_max:
        -   10.988323211669922
    /model.21/cv3.1/cv3.1.2/Conv_output_0:
        qtype: asym
        qmethod: layer
        dtype: int8
        min:
        -   -7.0
        max:
        -   0.0
        scale:
        -   0.027450980392156862
        zero_point:
        -   127
        ori_min:
        -   -37.32305145263672
        ori_max:
        -   -2.7637243270874023
    onnx::ReduceSum_333:
        qtype: asym
        qmethod: layer
        dtype: float32
        min:
        -   0.0
        max:
        -   0.05931618809700012
        scale: []
        zero_point: []
        ori_min:
        -   0.0
        ori_max:
        -   0.05931618809700012
    '335':
        qtype: asym
        qmethod: layer
        dtype: float32
        min:
        -   0.0
        max:
        -   0.05931618809700012
        scale: []
        zero_point: []
        ori_min:
        -   0.0
        ori_max:
        -   0.05931618809700012
    /model.21/cv2.0/cv2.0.0/conv/Conv_output_0:
        qtype: asym
        qmethod: layer
        dtype: int8
        min:
        -   0.0
        max:
        -   11.968688011169434
        scale:
        -   0.04693603141635072
        zero_point:
        -   -128
        ori_min:
        -   -18.855974197387695
        ori_max:
        -   11.968688011169434
    /model.21/cv2.0/cv2.0.0/act/Relu_output_0:
        qtype: asym
        qmethod: layer
        dtype: int8
        min:
        -   0.0
        max:
        -   11.968688011169434
        scale:
        -   0.04693603141635072
        zero_point:
        -   -128
        ori_min:
        -   0.0
        ori_max:
        -   11.968688011169434
    /model.21/cv2.0/cv2.0.1/conv/Conv_output_0:
        qtype: asym
        qmethod: layer
        dtype: int8
        min:
        -   0.0
        max:
        -   14.988672256469727
        scale:
        -   0.05877910688811658
        zero_point:
        -   -128
        ori_min:
        -   -9.974809646606445
        ori_max:
        -   14.988672256469727
    /model.21/cv2.0/cv2.0.1/act/Relu_output_0:
        qtype: asym
        qmethod: layer
        dtype: int8
        min:
        -   0.0
        max:
        -   14.988672256469727
        scale:
        -   0.05877910688811658
        zero_point:
        -   -128
        ori_min:
        -   0.0
        ori_max:
        -   14.988672256469727
    '306':
        qtype: asym
        qmethod: layer
        dtype: float32
        min:
        -   -9.393142700195312
        max:
        -   16.567962646484375
        scale: []
        zero_point: []
        ori_min:
        -   -9.393142700195312
        ori_max:
        -   16.567962646484375
    /model.21/cv3.0/cv3.0.0/cv3.0.0.0/conv/Conv_output_0:
        qtype: asym
        qmethod: layer
        dtype: int8
        min:
        -   0.0
        max:
        -   29.27581024169922
        scale:
        -   0.11480709898705575
        zero_point:
        -   -128
        ori_min:
        -   -24.68058967590332
        ori_max:
        -   29.27581024169922
    /model.21/cv3.0/cv3.0.0/cv3.0.0.0/act/Relu_output_0:
        qtype: asym
        qmethod: layer
        dtype: int8
        min:
        -   0.0
        max:
        -   29.27581024169922
        scale:
        -   0.11480709898705575
        zero_point:
        -   -128
        ori_min:
        -   0.0
        ori_max:
        -   29.27581024169922
    /model.21/cv3.0/cv3.0.0/cv3.0.0.1/conv/Conv_output_0:
        qtype: asym
        qmethod: layer
        dtype: int8
        min:
        -   0.0
        max:
        -   23.907974243164062
        scale:
        -   0.09375676173789828
        zero_point:
        -   -128
        ori_min:
        -   -17.16643524169922
        ori_max:
        -   23.907974243164062
    /model.21/cv3.0/cv3.0.0/cv3.0.0.1/act/Relu_output_0:
        qtype: asym
        qmethod: layer
        dtype: int8
        min:
        -   0.0
        max:
        -   23.907974243164062
        scale:
        -   0.09375676173789828
        zero_point:
        -   -128
        ori_min:
        -   0.0
        ori_max:
        -   23.907974243164062
    /model.21/cv3.0/cv3.0.1/cv3.0.1.0/conv/Conv_output_0:
        qtype: asym
        qmethod: layer
        dtype: int8
        min:
        -   0.0
        max:
        -   51.70530700683594
        scale:
        -   0.20276590983072917
        zero_point:
        -   -128
        ori_min:
        -   -43.18030548095703
        ori_max:
        -   51.70530700683594
    /model.21/cv3.0/cv3.0.1/cv3.0.1.0/act/Relu_output_0:
        qtype: asym
        qmethod: layer
        dtype: int8
        min:
        -   0.0
        max:
        -   51.70530700683594
        scale:
        -   0.20276590983072917
        zero_point:
        -   -128
        ori_min:
        -   0.0
        ori_max:
        -   51.70530700683594
    /model.21/cv3.0/cv3.0.1/cv3.0.1.1/conv/Conv_output_0:
        qtype: asym
        qmethod: layer
        dtype: int8
        min:
        -   0.0
        max:
        -   28.53131866455078
        scale:
        -   0.11188752417470894
        zero_point:
        -   -128
        ori_min:
        -   -18.853271484375
        ori_max:
        -   28.53131866455078
    /model.21/cv3.0/cv3.0.1/cv3.0.1.1/act/Relu_output_0:
        qtype: asym
        qmethod: layer
        dtype: int8
        min:
        -   0.0
        max:
        -   28.53131866455078
        scale:
        -   0.11188752417470894
        zero_point:
        -   -128
        ori_min:
        -   0.0
        ori_max:
        -   28.53131866455078
    /model.21/cv3.0/cv3.0.2/Conv_output_0:
        qtype: asym
        qmethod: layer
        dtype: int8
        min:
        -   -7.0
        max:
        -   1.6788930892944336
        scale:
        -   0.03403487485997817
        zero_point:
        -   78
        ori_min:
        -   -49.236934661865234
        ori_max:
        -   1.6788930892944336
    onnx::ReduceSum_316:
        qtype: asym
        qmethod: layer
        dtype: float32
        min:
        -   0.0
        max:
        -   0.8427578806877136
        scale: []
        zero_point: []
        ori_min:
        -   0.0
        ori_max:
        -   0.8427578806877136
    '318':
        qtype: asym
        qmethod: layer
        dtype: float32
        min:
        -   0.0
        max:
        -   0.8427578806877136
        scale: []
        zero_point: []
        ori_min:
        -   0.0
        ori_max:
        -   0.8427578806877136
    /model.16/Gather_1_output_0:
        qtype: asym
        qmethod: layer
        dtype: int16
        min:
        -   0.0
        max:
        -   0.631433367729187
        scale:
        -   9.635055584484428e-06
        zero_point:
        -   -32768
        ori_min:
        -   0.631433367729187
        ori_max:
        -   0.631433367729187
    /model.19/Gather_2_output_0:
        qtype: asym
        qmethod: layer
        dtype: int16
        min:
        -   0.0
        max:
        -   0.36620238423347473
        scale:
        -   5.587890199641028e-06
        zero_point:
        -   -32768
        ori_min:
        -   0.36620238423347473
        ori_max:
        -   0.36620238423347473
    /model.12/Gather_1_output_0:
        qtype: asym
        qmethod: layer
        dtype: int16
        min:
        -   0.0
        max:
        -   0.5493580102920532
        scale:
        -   8.382665908172019e-06
        zero_point:
        -   -32768
        ori_min:
        -   0.5493580102920532
        ori_max:
        -   0.5493580102920532
    /model.12/Gather_output_0:
        qtype: asym
        qmethod: layer
        dtype: int16
        min:
        -   0.0
        max:
        -   0.450594425201416
        scale:
        -   6.875630200677745e-06
        zero_point:
        -   -32768
        ori_min:
        -   0.450594425201416
        ori_max:
        -   0.450594425201416
    /model.19/Gather_1_output_0:
        qtype: asym
        qmethod: layer
        dtype: int16
        min:
        -   0.0
        max:
        -   0.37963494658470154
        scale:
        -   5.7928579626871375e-06
        zero_point:
        -   -32768
        ori_min:
        -   0.37963494658470154
        ori_max:
        -   0.37963494658470154
    /model.16/Gather_output_0:
        qtype: asym
        qmethod: layer
        dtype: int16
        min:
        -   0.0
        max:
        -   0.36852747201919556
        scale:
        -   5.623368765075083e-06
        zero_point:
        -   -32768
        ori_min:
        -   0.36852747201919556
        ori_max:
        -   0.36852747201919556
    /model.19/Gather_output_0:
        qtype: asym
        qmethod: layer
        dtype: int16
        min:
        -   0.0
        max:
        -   0.25411760807037354
        scale:
        -   3.877586145881949e-06
        zero_point:
        -   -32768
        ori_min:
        -   0.25411760807037354
        ori_max:
        -   0.25411760807037354
    images_int8:
        qtype: asym
        qmethod: layer
        dtype: int8
        min:
        -   0.0
        max:
        -   1.0
        scale:
        -   0.00392156862745098
        zero_point:
        -   -128
        ori_min:
        -   0.0117647061124444
        ori_max:
        -   1.0
    306_int8:
        qtype: asym
        qmethod: layer
        dtype: int8
        min:
        -   -9.393142700195312
        max:
        -   16.567962646484375
        scale:
        -   0.10180825626148897
        zero_point:
        -   -36
        ori_min:
        -   -9.393142700195312
        ori_max:
        -   16.567962646484375
    onnx::ReduceSum_316_int8:
        qtype: asym
        qmethod: layer
        dtype: int8
        min:
        -   0.0
        max:
        -   0.8427578806877136
        scale:
        -   0.003304932865442014
        zero_point:
        -   -128
        ori_min:
        -   0.0
        ori_max:
        -   0.8427578806877136
    318_int8:
        qtype: asym
        qmethod: layer
        dtype: int8
        min:
        -   0.0
        max:
        -   0.8427578806877136
        scale:
        -   0.003304932865442014
        zero_point:
        -   -128
        ori_min:
        -   0.0
        ori_max:
        -   0.8427578806877136
    323_int8:
        qtype: asym
        qmethod: layer
        dtype: int8
        min:
        -   -5.3699445724487305
        max:
        -   13.25861930847168
        scale:
        -   0.07305319168988396
        zero_point:
        -   -54
        ori_min:
        -   -5.3699445724487305
        ori_max:
        -   13.25861930847168
    onnx::ReduceSum_333_int8:
        qtype: asym
        qmethod: layer
        dtype: int8
        min:
        -   0.0
        max:
        -   0.5
        scale:
        -   0.00196078431372549
        zero_point:
        -   -128
        ori_min:
        -   0.0
        ori_max:
        -   0.05931618809700012
    335_int8:
        qtype: asym
        qmethod: layer
        dtype: int8
        min:
        -   0.0
        max:
        -   0.05931618809700012
        scale:
        -   0.00023261250234117694
        zero_point:
        -   -128
        ori_min:
        -   0.0
        ori_max:
        -   0.05931618809700012
